#ifndef Q8FMNIST_H
#define Q8FMNIST_H


static const unsigned int q8fmnist_len = 24784;
static const unsigned char q8fmnist[] = {
 0x20, 0x00, 0x00, 0x00, 0x54, 0x46, 0x4c, 0x33, 0x00, 0x00, 0x00, 0x00,
  0x00, 0x00, 0x12, 0x00, 0x1c, 0x00, 0x04, 0x00, 0x08, 0x00, 0x0c, 0x00,
  0x10, 0x00, 0x14, 0x00, 0x00, 0x00, 0x18, 0x00, 0x12, 0x00, 0x00, 0x00,
  0x03, 0x00, 0x00, 0x00, 0x10, 0x60, 0x00, 0x00, 0x1c, 0x52, 0x00, 0x00,
  0x04, 0x52, 0x00, 0x00, 0x3c, 0x00, 0x00, 0x00, 0x04, 0x00, 0x00, 0x00,
  0x01, 0x00, 0x00, 0x00, 0x0c, 0x00, 0x00, 0x00, 0x08, 0x00, 0x0c, 0x00,
  0x04, 0x00, 0x08, 0x00, 0x08, 0x00, 0x00, 0x00, 0x08, 0x00, 0x00, 0x00,
  0x13, 0x00, 0x00, 0x00, 0x13, 0x00, 0x00, 0x00, 0x6d, 0x69, 0x6e, 0x5f,
  0x72, 0x75, 0x6e, 0x74, 0x69, 0x6d, 0x65, 0x5f, 0x76, 0x65, 0x72, 0x73,
  0x69, 0x6f, 0x6e, 0x00, 0x14, 0x00, 0x00, 0x00, 0xb8, 0x51, 0x00, 0x00,
  0xa4, 0x51, 0x00, 0x00, 0x58, 0x51, 0x00, 0x00, 0x14, 0x51, 0x00, 0x00,
  0xf0, 0x50, 0x00, 0x00, 0xdc, 0x50, 0x00, 0x00, 0xc8, 0x50, 0x00, 0x00,
  0x74, 0x01, 0x00, 0x00, 0xf0, 0x00, 0x00, 0x00, 0xdc, 0x00, 0x00, 0x00,
  0xc8, 0x00, 0x00, 0x00, 0xbc, 0x00, 0x00, 0x00, 0xa8, 0x00, 0x00, 0x00,
  0x94, 0x00, 0x00, 0x00, 0x80, 0x00, 0x00, 0x00, 0x6c, 0x00, 0x00, 0x00,
  0x58, 0x00, 0x00, 0x00, 0x44, 0x00, 0x00, 0x00, 0x30, 0x00, 0x00, 0x00,
  0x04, 0x00, 0x00, 0x00, 0xb2, 0xac, 0xff, 0xff, 0x04, 0x00, 0x00, 0x00,
  0x10, 0x00, 0x00, 0x00, 0x31, 0x2e, 0x31, 0x31, 0x2e, 0x30, 0x00, 0x00,
  0x00, 0x00, 0x00, 0x00, 0x00, 0x00, 0x00, 0x00, 0x00, 0x00, 0x00, 0x00,
  0x00, 0x00, 0x00, 0x00, 0x00, 0x00, 0x00, 0x00, 0x30, 0xa3, 0xff, 0xff,
  0x00, 0x00, 0x00, 0x00, 0x00, 0x00, 0x00, 0x00, 0x00, 0x00, 0x00, 0x00,
  0x40, 0xa3, 0xff, 0xff, 0x00, 0x00, 0x00, 0x00, 0x00, 0x00, 0x00, 0x00,
  0x00, 0x00, 0x00, 0x00, 0x50, 0xa3, 0xff, 0xff, 0x00, 0x00, 0x00, 0x00,
  0x00, 0x00, 0x00, 0x00, 0x00, 0x00, 0x00, 0x00, 0x60, 0xa3, 0xff, 0xff,
  0x00, 0x00, 0x00, 0x00, 0x00, 0x00, 0x00, 0x00, 0x00, 0x00, 0x00, 0x00,
  0x70, 0xa3, 0xff, 0xff, 0x00, 0x00, 0x00, 0x00, 0x00, 0x00, 0x00, 0x00,
  0x00, 0x00, 0x00, 0x00, 0x80, 0xa3, 0xff, 0xff, 0x00, 0x00, 0x00, 0x00,
  0x00, 0x00, 0x00, 0x00, 0x00, 0x00, 0x00, 0x00, 0x90, 0xa3, 0xff, 0xff,
  0x00, 0x00, 0x00, 0x00, 0x00, 0x00, 0x00, 0x00, 0x00, 0x00, 0x00, 0x00,
  0xa0, 0xa3, 0xff, 0xff, 0x00, 0x00, 0x00, 0x00, 0x52, 0xad, 0xff, 0xff,
  0x04, 0x00, 0x00, 0x00, 0x04, 0x00, 0x00, 0x00, 0x01, 0x00, 0x00, 0x00,
  0x62, 0xad, 0xff, 0xff, 0x04, 0x00, 0x00, 0x00, 0x04, 0x00, 0x00, 0x00,
  0x00, 0x00, 0x00, 0x00, 0x72, 0xad, 0xff, 0xff, 0x04, 0x00, 0x00, 0x00,
  0x6c, 0x00, 0x00, 0x00, 0x00, 0x4b, 0xbe, 0x9c, 0x28, 0x24, 0x58, 0x81,
  0x36, 0xa6, 0x1c, 0x3c, 0x81, 0x6f, 0x10, 0xf8, 0x09, 0xfc, 0x42, 0x23,
  0xd0, 0x6d, 0xf0, 0x92, 0x69, 0xf7, 0x81, 0x04, 0x4a, 0xa5, 0xd2, 0x7f,
  0x06, 0x81, 0x28, 0xdf, 0xcd, 0xa1, 0x7f, 0xd3, 0xdb, 0x2d, 0x34, 0xe0,
  0xec, 0x60, 0x06, 0x23, 0x4f, 0x96, 0x35, 0xbd, 0x81, 0x00, 0xc4, 0xd6,
  0xc0, 0xbb, 0x61, 0x12, 0xae, 0x42, 0x7f, 0xfb, 0xea, 0x7f, 0x1e, 0x40,
  0xd3, 0xe3, 0xd4, 0xad, 0xf0, 0x9e, 0x81, 0x0a, 0xd9, 0xd2, 0x0c, 0x0e,
  0xfc, 0x06, 0x45, 0xb7, 0x01, 0x34, 0xca, 0xbf, 0x7f, 0xbf, 0xc2, 0x4a,
  0x24, 0xd9, 0x58, 0xf5, 0x56, 0xf2, 0x81, 0x9d, 0x81, 0xe7, 0x4c, 0x3a,
  0xf3, 0x0d, 0x15, 0x09, 0x00, 0x00, 0x00, 0x00, 0x00, 0x00, 0x00, 0x00,
  0xf2, 0xad, 0xff, 0xff, 0x04, 0x00, 0x00, 0x00, 0x38, 0x4f, 0x00, 0x00,
  0xfa, 0xff, 0xf5, 0x07, 0x05, 0x16, 0xfd, 0x0b, 0xfc, 0x05, 0xfe, 0xfe,
  0xf9, 0xec, 0x1b, 0x01, 0xf7, 0x01, 0xfc, 0xf3, 0x05, 0x03, 0xe8, 0x07,
  0xfd, 0xf6, 0xfc, 0xe1, 0x04, 0x12, 0x01, 0x06, 0x0d, 0xf3, 0xf7, 0xfe,
  0x06, 0x06, 0x02, 0x08, 0xfd, 0x08, 0x05, 0xf6, 0x12, 0xfc, 0xf4, 0x06,
  0x05, 0x01, 0x06, 0xfb, 0x0d, 0xf6, 0xfc, 0x0c, 0x0b, 0x0b, 0xf5, 0xff,
  0x01, 0xf9, 0xfc, 0x01, 0xfe, 0x03, 0x00, 0xee, 0x14, 0x01, 0x05, 0xf7,
  0x04, 0xe3, 0xf8, 0xf8, 0xf2, 0x04, 0x02, 0xfe, 0x0b, 0xef, 0x02, 0x0b,
  0xf9, 0xf7, 0x08, 0xfb, 0xf0, 0x01, 0x03, 0x17, 0x03, 0x02, 0x08, 0x0a,
  0x03, 0x01, 0xff, 0x00, 0xfa, 0x03, 0xf7, 0xfd, 0xfb, 0x0a, 0x00, 0xf3,
  0xfa, 0x0e, 0x05, 0x06, 0x0a, 0x14, 0x04, 0x0e, 0xf9, 0x03, 0x1c, 0xfd,
  0xf5, 0x0c, 0x03, 0xfd, 0x07, 0x22, 0x09, 0x01, 0x09, 0x05, 0x03, 0x0d,
  0x03, 0x1a, 0xff, 0xff, 0x08, 0xff, 0x09, 0xfb, 0x00, 0x0b, 0x08, 0x0a,
  0x0f, 0x10, 0x0d, 0xf5, 0x07, 0x04, 0x01, 0x09, 0x00, 0x00, 0x0c, 0x09,
  0xf8, 0x00, 0xf5, 0xf3, 0x02, 0x0a, 0x00, 0x07, 0x01, 0xf1, 0xfe, 0x01,
  0x00, 0xf6, 0x0b, 0xf8, 0xf9, 0xf0, 0x00, 0x0e, 0x02, 0x03, 0xfc, 0xfb,
  0x05, 0x08, 0x11, 0xf6, 0xfd, 0xf5, 0xfd, 0xf9, 0xe5, 0xf2, 0x00, 0x05,
  0xf7, 0xfe, 0x08, 0xfa, 0xfb, 0x04, 0xfb, 0xf3, 0xf6, 0xef, 0xfb, 0xff,
  0x01, 0x03, 0xfb, 0x09, 0x03, 0x01, 0x06, 0x0c, 0x04, 0xfd, 0x02, 0x0f,
  0x00, 0x00, 0x00, 0x0e, 0x11, 0x00, 0x02, 0x05, 0x07, 0x0a, 0xfb, 0x06,
  0xfb, 0xf6, 0xf6, 0xfe, 0xf9, 0x02, 0x04, 0x09, 0x02, 0xf6, 0xfd, 0x02,
  0xf1, 0x01, 0xf7, 0xff, 0x07, 0xf2, 0xfa, 0x05, 0x04, 0xf7, 0x08, 0xf3,
  0xf3, 0x00, 0xf8, 0xfb, 0xf7, 0xfa, 0xfb, 0xef, 0xf5, 0xf9, 0x06, 0xf5,
  0xf4, 0x03, 0xfb, 0xfd, 0x00, 0x02, 0x00, 0xeb, 0xff, 0xf6, 0xfb, 0xf6,
  0xf5, 0xfb, 0xfe, 0x05, 0xee, 0x02, 0xfc, 0xf6, 0xf9, 0x02, 0x0e, 0x00,
  0x03, 0x12, 0x07, 0x00, 0xfa, 0x06, 0x01, 0x02, 0x06, 0xfa, 0xf2, 0x00,
  0xf3, 0xff, 0x0a, 0x0b, 0x03, 0x10, 0xe1, 0x0f, 0xfd, 0x01, 0x04, 0xfb,
  0xfc, 0xff, 0xfd, 0xfd, 0xff, 0xfc, 0x05, 0x0c, 0x06, 0x04, 0x04, 0x0b,
  0x05, 0x02, 0xf9, 0x01, 0x05, 0x08, 0x07, 0xfe, 0xef, 0x02, 0x09, 0x03,
  0x02, 0xfb, 0x16, 0x01, 0xff, 0xf1, 0x02, 0xe8, 0xf9, 0x04, 0x02, 0xf2,
  0x00, 0xf5, 0x18, 0xf7, 0xfc, 0xf3, 0xfa, 0xf5, 0xfe, 0x04, 0x04, 0xf8,
  0xfe, 0xf7, 0x02, 0xf3, 0xec, 0x02, 0xf7, 0x04, 0x0d, 0xf5, 0xfe, 0xff,
  0x00, 0x06, 0x01, 0xf7, 0x06, 0xfc, 0xf6, 0x0f, 0x11, 0xfc, 0x02, 0x12,
  0xf6, 0x01, 0xff, 0x02, 0xf5, 0x0a, 0x06, 0x09, 0xff, 0xf3, 0x02, 0x05,
  0xfa, 0xf9, 0xf8, 0xf5, 0xf6, 0xf9, 0xff, 0x20, 0x0f, 0xfb, 0xfe, 0x06,
  0xff, 0x08, 0xf6, 0xf2, 0x0a, 0x00, 0x01, 0x02, 0xfa, 0xf5, 0xff, 0x01,
  0xfe, 0x05, 0x07, 0x05, 0xfd, 0xee, 0x04, 0xfa, 0x02, 0x07, 0xfc, 0xf6,
  0xf6, 0x0b, 0x03, 0xfe, 0xf4, 0xff, 0x05, 0xf4, 0xeb, 0xf9, 0x03, 0xe6,
  0xfc, 0xf8, 0x02, 0xff, 0xf9, 0x02, 0xf8, 0xf3, 0xfd, 0xff, 0xff, 0xff,
  0xf7, 0x08, 0xff, 0xff, 0x03, 0xfe, 0x0d, 0x0f, 0x01, 0x05, 0x00, 0xff,
  0x00, 0x0b, 0x0a, 0x12, 0xfb, 0xf8, 0x0d, 0xfd, 0xfe, 0x0c, 0x08, 0x0b,
  0xfe, 0xfe, 0xff, 0x01, 0x05, 0xfd, 0x04, 0xe9, 0xed, 0x06, 0x09, 0x02,
  0x05, 0x00, 0xfd, 0x03, 0x03, 0xfd, 0x03, 0x08, 0xf8, 0x00, 0xfb, 0xfb,
  0x0b, 0x01, 0x0b, 0x0b, 0x06, 0x07, 0x00, 0xf2, 0xeb, 0x0e, 0x02, 0x01,
  0xfb, 0xf8, 0xf4, 0xff, 0xf5, 0xf1, 0xff, 0x01, 0x09, 0x06, 0xf6, 0xfe,
  0x00, 0xfd, 0xf3, 0x00, 0x09, 0x0c, 0xf6, 0x0a, 0x08, 0xff, 0x03, 0x05,
  0xfc, 0xf5, 0xee, 0xf8, 0xed, 0x0f, 0x02, 0x09, 0x07, 0xf3, 0xf6, 0x03,
  0x0d, 0xfb, 0xf1, 0xfd, 0x04, 0xfb, 0x0b, 0x12, 0x0f, 0xfd, 0xfc, 0x04,
  0x0b, 0xfc, 0xfa, 0x00, 0x0a, 0x0c, 0x0a, 0x14, 0xe6, 0xfc, 0xff, 0xff,
  0x01, 0x08, 0x08, 0x03, 0xf8, 0x04, 0x03, 0x0b, 0x02, 0x00, 0x06, 0xff,
  0x02, 0x0f, 0x03, 0xfc, 0xfd, 0xfe, 0x0a, 0xfe, 0xf6, 0x02, 0x02, 0x0e,
  0xfc, 0xf2, 0xfe, 0x02, 0xfb, 0xfd, 0xf2, 0x0e, 0xf8, 0x02, 0xfe, 0xf9,
  0xef, 0xfb, 0x04, 0x04, 0xfb, 0x10, 0x00, 0x0e, 0xfa, 0xff, 0x02, 0x04,
  0x0a, 0x0c, 0xe6, 0x0d, 0x00, 0x03, 0x01, 0x03, 0xf4, 0xfb, 0x05, 0x00,
  0xff, 0x03, 0xff, 0xfe, 0xff, 0x11, 0x09, 0xf1, 0xe6, 0xf8, 0x0c, 0xf2,
  0xf4, 0xf6, 0xf9, 0x02, 0xf4, 0x10, 0xf9, 0x19, 0xf5, 0xf5, 0xf4, 0x0b,
  0x01, 0x00, 0xfb, 0x05, 0x05, 0xff, 0xfd, 0xfa, 0xe3, 0x0c, 0xf3, 0xf7,
  0x06, 0xf8, 0x06, 0x05, 0xee, 0xf1, 0xf7, 0x0d, 0xff, 0x04, 0xf8, 0x01,
  0xfa, 0xfb, 0x01, 0x04, 0xfe, 0x04, 0xf9, 0xfc, 0xf6, 0x02, 0x06, 0x01,
  0xfc, 0xf4, 0xee, 0x02, 0xf0, 0x12, 0xf8, 0x0c, 0xfb, 0xf8, 0xfe, 0xfb,
  0x04, 0xfc, 0xf2, 0xfd, 0xea, 0x10, 0xfc, 0x1a, 0x0c, 0xf5, 0xfd, 0x10,
  0xfd, 0xfb, 0xfc, 0xff, 0xf4, 0xfb, 0xff, 0x05, 0xea, 0xff, 0x06, 0x02,
  0x02, 0x08, 0xf9, 0xf9, 0xfb, 0x09, 0x01, 0xff, 0xe9, 0xfc, 0x04, 0xdc,
  0x0b, 0x07, 0xf9, 0x0b, 0x03, 0x10, 0xfa, 0xf9, 0xf2, 0x04, 0x02, 0x11,
  0xfa, 0xea, 0x0d, 0x07, 0xfd, 0xfe, 0xee, 0x0a, 0xfe, 0x06, 0xf3, 0x08,
  0xf8, 0xf4, 0x07, 0xf2, 0xfe, 0xfe, 0xec, 0x07, 0xfe, 0xf8, 0xfe, 0xfd,
  0x03, 0x05, 0xd3, 0x0c, 0xfd, 0xf5, 0x01, 0xf7, 0xfa, 0xf1, 0x09, 0xfa,
  0x00, 0x05, 0xf9, 0xf6, 0x03, 0x08, 0xfe, 0x10, 0xfd, 0xf0, 0x06, 0x06,
  0xfa, 0xfd, 0x06, 0x03, 0xf1, 0x0f, 0x05, 0x04, 0x02, 0xfb, 0xf7, 0xfc,
  0x04, 0xfd, 0xef, 0x03, 0xff, 0x00, 0xfe, 0xf8, 0xf4, 0x02, 0xf0, 0xf4,
  0x05, 0xf6, 0x02, 0x05, 0xfe, 0xe7, 0xfd, 0xff, 0x07, 0x07, 0xf7, 0x03,
  0x08, 0xfc, 0x09, 0xfe, 0xf1, 0x0a, 0x02, 0x08, 0x07, 0x03, 0x05, 0xfd,
  0x00, 0xec, 0xf0, 0xf8, 0x00, 0x02, 0xf1, 0xf6, 0xf1, 0xf5, 0xfc, 0x03,
  0x01, 0xf8, 0xf1, 0x00, 0xf5, 0x03, 0x01, 0x0b, 0xfa, 0x02, 0xfe, 0x03,
  0x06, 0x09, 0xfd, 0x00, 0xfb, 0x05, 0x03, 0x07, 0xe4, 0x01, 0x03, 0xf2,
  0xf8, 0xfc, 0xfe, 0xfc, 0xf6, 0x0d, 0xf7, 0x00, 0xf6, 0x05, 0x09, 0xeb,
  0xff, 0xfa, 0xfb, 0x0a, 0xf7, 0x02, 0x09, 0xfb, 0xfd, 0x04, 0x08, 0x02,
  0x02, 0x02, 0x04, 0x0c, 0xf5, 0x07, 0xfc, 0x0c, 0x06, 0x0d, 0x00, 0xfb,
  0xf7, 0xd9, 0xff, 0xfd, 0xfe, 0xfc, 0xea, 0xff, 0x06, 0xf8, 0xed, 0x03,
  0x00, 0xfe, 0xf5, 0xfd, 0xfd, 0x05, 0x00, 0xff, 0x01, 0xf2, 0x01, 0xfa,
  0xf5, 0xf9, 0xf7, 0xf6, 0xfc, 0x03, 0xfe, 0x04, 0x00, 0xf3, 0x07, 0x00,
  0x06, 0x07, 0x08, 0x02, 0xfc, 0x0b, 0xfe, 0xfe, 0x05, 0x04, 0x01, 0xfe,
  0xff, 0xfe, 0xfb, 0xfc, 0xfd, 0x08, 0xfc, 0xdf, 0xf3, 0xf6, 0xf5, 0xf0,
  0xfd, 0x01, 0x05, 0x03, 0x01, 0xf0, 0x03, 0x06, 0xee, 0x16, 0x03, 0xed,
  0x0a, 0x06, 0x0c, 0xff, 0x03, 0x01, 0x06, 0x02, 0xe9, 0xfb, 0xfd, 0xfe,
  0x02, 0xf1, 0xf1, 0x00, 0xfb, 0x05, 0xfd, 0x02, 0xf3, 0xfb, 0xf1, 0xff,
  0x02, 0xfe, 0xf9, 0x04, 0x0b, 0x18, 0x01, 0x05, 0x0c, 0x08, 0x03, 0x0a,
  0x0a, 0x18, 0x01, 0x03, 0x05, 0x06, 0xf9, 0xf3, 0xff, 0x0a, 0x0a, 0xeb,
  0xeb, 0x06, 0x00, 0xfb, 0x02, 0x0c, 0xf9, 0xf4, 0x03, 0xff, 0xfc, 0xd2,
  0xfc, 0x07, 0xf9, 0x05, 0xfb, 0x02, 0xfe, 0xfc, 0x07, 0x02, 0x00, 0xfb,
  0xf7, 0xf8, 0x00, 0x09, 0xf4, 0x00, 0x01, 0x03, 0x06, 0x07, 0xf7, 0xf5,
  0xf3, 0xe4, 0xfd, 0xf6, 0xfe, 0x05, 0xf3, 0xfa, 0xff, 0xf9, 0xf7, 0xfb,
  0xfb, 0x03, 0xf2, 0x02, 0xf9, 0x07, 0x00, 0x0b, 0x04, 0xfa, 0xff, 0xf7,
  0xfe, 0x00, 0x07, 0x05, 0xfe, 0x00, 0x00, 0xfd, 0x0c, 0x05, 0xff, 0xfb,
  0x05, 0x06, 0x01, 0x09, 0xff, 0x00, 0x01, 0xf5, 0x05, 0x0b, 0xfd, 0xf9,
  0x00, 0xfa, 0x0d, 0xfe, 0x02, 0x00, 0x03, 0xe6, 0xed, 0xfe, 0xf7, 0xfd,
  0x08, 0x0a, 0xf9, 0x07, 0xfc, 0xf6, 0x04, 0xf9, 0xcd, 0x0c, 0x08, 0xf0,
  0xf9, 0xfd, 0x0b, 0xfa, 0x01, 0xf7, 0xfd, 0xfa, 0xea, 0xfa, 0xfb, 0xfb,
  0x05, 0xf6, 0xf2, 0x04, 0xf8, 0xfb, 0xfa, 0xfb, 0xeb, 0xfd, 0xfa, 0x0f,
  0x00, 0xfd, 0x01, 0xff, 0xf1, 0x12, 0xfc, 0x07, 0x00, 0x01, 0xfe, 0xfc,
  0x01, 0x05, 0x07, 0xff, 0xfd, 0xfe, 0x00, 0xf4, 0xf7, 0x07, 0x01, 0xfe,
  0xfa, 0x04, 0xfe, 0xfd, 0x01, 0x0a, 0xff, 0xeb, 0x10, 0xfc, 0xfc, 0xeb,
  0xf8, 0x02, 0xfb, 0x06, 0x0c, 0xf4, 0x03, 0xef, 0x0f, 0x04, 0x02, 0x07,
  0xf9, 0x0e, 0x01, 0x00, 0x0c, 0xf4, 0x04, 0xfb, 0x10, 0xfe, 0x01, 0xfd,
  0xf9, 0xe4, 0xfc, 0xf8, 0xff, 0x02, 0xf0, 0x07, 0x04, 0xf7, 0xfd, 0x02,
  0xfd, 0xfd, 0xf8, 0xfd, 0x01, 0x08, 0xf5, 0xed, 0x08, 0xfb, 0x01, 0x05,
  0x0a, 0x01, 0xf5, 0x01, 0x0c, 0xf4, 0xfe, 0xfb, 0x09, 0xfc, 0xfd, 0x06,
  0xff, 0xff, 0x06, 0x02, 0xff, 0xf9, 0x00, 0xfd, 0x0a, 0x08, 0x01, 0x06,
  0x06, 0x05, 0xfe, 0x04, 0x01, 0x05, 0xff, 0xf9, 0xeb, 0x0a, 0xfc, 0xfc,
  0x04, 0x0c, 0xfd, 0x02, 0xf4, 0xf6, 0x0a, 0xf3, 0xef, 0x04, 0x02, 0xf5,
  0xfd, 0x00, 0x0e, 0xfa, 0x09, 0x08, 0x03, 0x02, 0xf5, 0xf8, 0xfd, 0xf9,
  0xfb, 0xf4, 0xfb, 0x03, 0xf4, 0x06, 0xfa, 0x02, 0xf5, 0xf9, 0xfe, 0xfe,
  0x04, 0xfc, 0xfb, 0x01, 0xff, 0x0c, 0xf9, 0x00, 0x11, 0xf8, 0xf5, 0x06,
  0xfd, 0xf8, 0x09, 0x02, 0xfb, 0xfa, 0x01, 0xf7, 0x13, 0x00, 0xef, 0xf1,
  0xfe, 0xfa, 0x04, 0xff, 0x09, 0xfc, 0xfc, 0xe5, 0x19, 0x04, 0xfd, 0xfd,
  0xff, 0x0d, 0x02, 0xff, 0x14, 0x03, 0xfa, 0xf4, 0x09, 0xf4, 0x04, 0xff,
  0xf4, 0xfd, 0x00, 0x07, 0x04, 0xfb, 0x00, 0xf5, 0x0c, 0xf8, 0xf9, 0x06,
  0xef, 0xe9, 0xfb, 0xfc, 0x05, 0xfc, 0xec, 0x00, 0x09, 0x04, 0x02, 0x03,
  0xf8, 0xf7, 0xe8, 0xfa, 0x05, 0xf7, 0xff, 0xeb, 0x02, 0xf4, 0xf2, 0xfb,
  0xfd, 0xff, 0xee, 0xfb, 0x04, 0xf6, 0x02, 0xf5, 0x0c, 0xf7, 0xfc, 0xfb,
  0xfe, 0xff, 0x09, 0x00, 0xfe, 0x04, 0x02, 0xfc, 0x07, 0x0a, 0x07, 0x01,
  0x04, 0x05, 0xfc, 0x08, 0x03, 0x04, 0x05, 0xf1, 0xeb, 0x11, 0x0e, 0x01,
  0x01, 0x03, 0xf5, 0x03, 0xe1, 0x01, 0x02, 0xf3, 0xeb, 0xfa, 0x02, 0xf6,
  0x00, 0x03, 0x0a, 0xfc, 0x03, 0x07, 0x01, 0xfc, 0xf5, 0xf8, 0xf9, 0xfa,
  0xf6, 0xf7, 0x05, 0xfe, 0xf4, 0x09, 0x02, 0xf8, 0xf0, 0xfb, 0x04, 0x05,
  0xfd, 0xfd, 0x04, 0x02, 0xfb, 0x07, 0x0a, 0x02, 0x0d, 0xfd, 0x00, 0xfd,
  0xfd, 0xfa, 0xfd, 0x01, 0xf6, 0x05, 0xff, 0xee, 0xfe, 0xfb, 0xfb, 0xfd,
  0xff, 0x01, 0x03, 0x05, 0x06, 0x01, 0xf6, 0xec, 0x06, 0x02, 0xfd, 0xf8,
  0xf9, 0xfb, 0x03, 0xfe, 0x14, 0xfe, 0xff, 0xf8, 0x0c, 0xfd, 0xf9, 0x06,
  0xf1, 0xf9, 0xfb, 0xf5, 0xfe, 0xfc, 0xfa, 0xf8, 0x0c, 0xeb, 0xf5, 0x03,
  0xff, 0xde, 0x02, 0x05, 0x03, 0xf7, 0xe6, 0x04, 0x0a, 0x07, 0x00, 0xff,
  0xf8, 0x00, 0xf0, 0xfb, 0x06, 0xf9, 0x01, 0x09, 0x05, 0xf7, 0xf9, 0x02,
  0xff, 0x09, 0x04, 0x04, 0xfd, 0x06, 0x03, 0x05, 0x0d, 0x07, 0x03, 0x01,
  0xfb, 0x04, 0x0f, 0x04, 0x08, 0xfc, 0x04, 0xf8, 0x01, 0x09, 0xfc, 0xf8,
  0x08, 0x04, 0xf7, 0xff, 0xff, 0xe7, 0x02, 0xe8, 0xdb, 0x05, 0x04, 0xf0,
  0x04, 0xfa, 0xfa, 0xfd, 0xf6, 0x02, 0xfd, 0xfb, 0xfd, 0xfb, 0x03, 0x00,
  0xf8, 0x0f, 0xfd, 0x09, 0x00, 0x0b, 0x05, 0xf4, 0xf6, 0x03, 0xff, 0xf4,
  0xf8, 0xed, 0xfc, 0xfd, 0x05, 0xfd, 0xf9, 0xec, 0xe9, 0xfc, 0xf8, 0x01,
  0xff, 0xf9, 0x00, 0x02, 0xf9, 0x06, 0xf9, 0xfa, 0x0a, 0x00, 0xfb, 0x0b,
  0xf8, 0xf7, 0xfa, 0xf6, 0xea, 0xfc, 0x07, 0x0a, 0xf3, 0xfe, 0x0a, 0x03,
  0x08, 0xf6, 0xfc, 0xf8, 0x05, 0x07, 0xfb, 0xf7, 0xef, 0xf8, 0xfe, 0xfc,
  0xea, 0xfb, 0x00, 0x02, 0x05, 0xfa, 0xfa, 0xfc, 0x0e, 0x06, 0xfd, 0x0d,
  0xfb, 0xfa, 0xf9, 0xf1, 0x08, 0xf6, 0xfc, 0xfa, 0x0b, 0xf8, 0xf4, 0x04,
  0xfd, 0xf3, 0xfe, 0x05, 0x05, 0xfe, 0xfe, 0xe5, 0x08, 0x08, 0xfe, 0x02,
  0xf6, 0x01, 0xfa, 0xfc, 0xfe, 0xea, 0xfc, 0xfe, 0x02, 0xfa, 0xfd, 0x00,
  0x00, 0x01, 0x10, 0x02, 0x00, 0x05, 0xfb, 0xfb, 0x09, 0x0b, 0x04, 0x01,
  0xfc, 0x0d, 0xf2, 0x08, 0x03, 0xfa, 0x05, 0x01, 0x0b, 0x03, 0xf9, 0xf9,
  0x11, 0x01, 0xfb, 0x00, 0xfe, 0xf9, 0xfe, 0xff, 0xe1, 0x00, 0xfd, 0xf2,
  0x07, 0xf7, 0xf2, 0xfe, 0xf3, 0x0c, 0xfb, 0xfd, 0xff, 0xfd, 0x03, 0x12,
  0x00, 0xfb, 0x08, 0x00, 0x01, 0x00, 0xf7, 0xf0, 0xed, 0xff, 0x08, 0x01,
  0xfc, 0xf5, 0x07, 0x06, 0xfa, 0x02, 0xfd, 0xf6, 0xf0, 0xf9, 0x02, 0x00,
  0xfb, 0xec, 0xfc, 0x04, 0xec, 0xff, 0xf9, 0xf6, 0x02, 0x01, 0xff, 0xfd,
  0x04, 0xfd, 0x00, 0x04, 0xfe, 0x05, 0x0f, 0x06, 0xf3, 0x00, 0x0c, 0xff,
  0x05, 0xf3, 0x02, 0xf4, 0xf0, 0x09, 0xfc, 0xfc, 0xef, 0xfc, 0x07, 0x00,
  0x0b, 0xf0, 0x00, 0xfd, 0xfb, 0x05, 0xe6, 0xfb, 0x08, 0x00, 0x0b, 0x08,
  0xfb, 0xf3, 0xff, 0xfd, 0x03, 0xfa, 0xfe, 0xfa, 0x0a, 0x00, 0xfc, 0x0e,
  0x09, 0xf6, 0xfa, 0x05, 0x08, 0xf3, 0xfc, 0xee, 0x01, 0xfc, 0x01, 0x04,
  0xeb, 0xf8, 0x0b, 0x06, 0xf4, 0x00, 0xf0, 0x01, 0xff, 0x00, 0x0d, 0x03,
  0x02, 0xfc, 0xfd, 0xff, 0x03, 0x00, 0x0c, 0xf2, 0x04, 0x01, 0xf0, 0x04,
  0xfd, 0x03, 0xe6, 0x06, 0xfe, 0xf7, 0x02, 0xee, 0x0a, 0xf6, 0x05, 0xfc,
  0xfd, 0xff, 0xf7, 0xfe, 0xff, 0xf9, 0x03, 0xfd, 0xe3, 0x00, 0x09, 0xef,
  0x0b, 0xfb, 0xec, 0x05, 0xf7, 0x01, 0x01, 0xfe, 0x04, 0xfb, 0x03, 0xfe,
  0x06, 0xff, 0xec, 0x04, 0x05, 0x00, 0x08, 0xfe, 0xf5, 0xfe, 0x03, 0x00,
  0x09, 0xfc, 0xf3, 0x03, 0x03, 0xfc, 0x0d, 0xf7, 0xf4, 0xf2, 0x02, 0x01,
  0x04, 0xf4, 0xf7, 0xfd, 0x0a, 0xf9, 0x05, 0x00, 0x01, 0xf8, 0x08, 0x04,
  0x01, 0xff, 0xfc, 0xfd, 0x02, 0x02, 0x0e, 0x06, 0x00, 0xfc, 0x0b, 0xf1,
  0xf7, 0xe5, 0xff, 0x07, 0x05, 0xfd, 0xf5, 0xfc, 0xeb, 0x04, 0xf9, 0xf3,
  0xf0, 0xe1, 0x02, 0xf9, 0x00, 0xfc, 0xe8, 0xfa, 0x07, 0xf6, 0xf6, 0x10,
  0xfa, 0xea, 0x07, 0xfb, 0x0b, 0xfe, 0xe7, 0xff, 0x0e, 0x07, 0x02, 0x09,
  0xf3, 0xe1, 0xf8, 0xfe, 0x04, 0xff, 0xe1, 0x10, 0x03, 0xf1, 0xfa, 0x01,
  0x0c, 0xf2, 0xe3, 0xec, 0xfd, 0x02, 0x03, 0xe7, 0xfd, 0xe4, 0xee, 0x01,
  0x03, 0x02, 0xef, 0xf9, 0x02, 0xf3, 0x03, 0xf0, 0x03, 0x04, 0xe8, 0x07,
  0xff, 0x10, 0xfd, 0x0f, 0x08, 0x07, 0xfd, 0xfa, 0xf6, 0x03, 0x12, 0xfc,
  0xfc, 0x01, 0xff, 0x09, 0x03, 0x1e, 0xfc, 0xcf, 0xf5, 0x07, 0xfa, 0xda,
  0xfe, 0x12, 0x04, 0x0b, 0x05, 0x0e, 0x0a, 0xed, 0xec, 0x03, 0x10, 0xdb,
  0x10, 0xee, 0x15, 0x03, 0xd5, 0xfa, 0x02, 0xf8, 0xfd, 0x05, 0x01, 0xe6,
  0x08, 0x03, 0xfe, 0xfc, 0xe7, 0xeb, 0x10, 0xe7, 0xf3, 0xff, 0x06, 0xe0,
  0x0d, 0xfc, 0xf3, 0x0b, 0xf5, 0x02, 0x09, 0xe7, 0xcc, 0xfe, 0x09, 0xe2,
  0xff, 0xf3, 0x15, 0x16, 0xc7, 0x0c, 0x0c, 0x0d, 0xde, 0x11, 0x08, 0xe9,
  0x00, 0xff, 0x16, 0x19, 0xe6, 0xfe, 0x01, 0xf9, 0xd6, 0x1d, 0x0e, 0xcf,
  0xf7, 0x17, 0x1b, 0x20, 0xea, 0x0f, 0x05, 0x00, 0xf0, 0x23, 0x0b, 0xe6,
  0xfe, 0xe9, 0x07, 0xf5, 0xfc, 0xfb, 0xe2, 0xee, 0xfc, 0xff, 0xf7, 0xfa,
  0xf2, 0xf1, 0xde, 0xd5, 0xfc, 0xe1, 0xdd, 0xef, 0xf9, 0xc2, 0xdc, 0xf6,
  0x04, 0x03, 0xe3, 0xe8, 0x05, 0x04, 0x01, 0x08, 0x00, 0xe2, 0xed, 0xfe,
  0x04, 0x01, 0xfd, 0x01, 0xff, 0xf2, 0x01, 0xfc, 0x00, 0xff, 0x08, 0x02,
  0xfb, 0xf6, 0xeb, 0x06, 0xf6, 0xf6, 0x01, 0xdd, 0xfe, 0x01, 0x03, 0x00,
  0x05, 0xfe, 0xfb, 0xf9, 0x07, 0x11, 0x08, 0xf9, 0x08, 0xf2, 0x04, 0x08,
  0x05, 0x07, 0xef, 0x0a, 0x03, 0x11, 0x0f, 0x0e, 0xfc, 0x00, 0x10, 0xfb,
  0x02, 0xfe, 0xf4, 0x05, 0xf9, 0xff, 0x0a, 0xf5, 0xfb, 0x05, 0x06, 0xfc,
  0x06, 0x07, 0xf0, 0xfd, 0x03, 0xea, 0x0e, 0x04, 0x0d, 0x07, 0x0b, 0x10,
  0x19, 0x02, 0xf6, 0x03, 0x08, 0x03, 0xf8, 0xf6, 0xf3, 0x07, 0x05, 0xf0,
  0x18, 0x01, 0x0b, 0x07, 0xe8, 0x06, 0xfe, 0x07, 0xf8, 0x09, 0x09, 0xe3,
  0x08, 0xf3, 0x0b, 0x02, 0xf2, 0x09, 0xf2, 0xf6, 0xf5, 0x0e, 0x09, 0xed,
  0xfc, 0xf6, 0x09, 0x17, 0xf1, 0xf3, 0x00, 0xf5, 0x01, 0x15, 0xff, 0xf1,
  0x04, 0xec, 0x0d, 0xfd, 0xf9, 0xfd, 0x05, 0xf2, 0x00, 0xf9, 0xfb, 0x03,
  0xfc, 0xf1, 0xf9, 0xcc, 0x02, 0xf8, 0xcb, 0x09, 0xff, 0xc6, 0xec, 0x06,
  0x04, 0x05, 0xe4, 0x05, 0x03, 0x01, 0x06, 0xf5, 0xfd, 0xfc, 0x06, 0xfe,
  0x04, 0xfe, 0x0a, 0x00, 0xf7, 0xff, 0x01, 0xe6, 0x02, 0x06, 0x0a, 0x02,
  0xfb, 0x00, 0x04, 0x08, 0xff, 0xf4, 0x04, 0xec, 0x01, 0x0b, 0x01, 0x04,
  0xf9, 0x0a, 0xfc, 0x04, 0x0d, 0x10, 0x08, 0xf8, 0x0a, 0x07, 0x07, 0x14,
  0x02, 0x06, 0x01, 0x03, 0xfe, 0x00, 0x14, 0xf9, 0xf1, 0xff, 0xff, 0x21,
  0x08, 0x0b, 0xf6, 0x03, 0xf8, 0x03, 0x0d, 0x15, 0xf3, 0xf7, 0x0f, 0xf6,
  0x0c, 0x08, 0x01, 0x01, 0xea, 0xf0, 0x0a, 0xfd, 0xea, 0x0b, 0x0d, 0x01,
  0x13, 0xff, 0x08, 0x10, 0x11, 0x02, 0xfe, 0xf0, 0xf9, 0x0c, 0xfd, 0xf6,
  0x07, 0x03, 0x10, 0x0b, 0xf5, 0x00, 0xf1, 0x03, 0x09, 0x06, 0x0a, 0x00,
  0xfa, 0xf8, 0x00, 0x0e, 0xf2, 0x0a, 0xfc, 0xf6, 0xf5, 0x0f, 0x07, 0xf8,
  0xf5, 0x04, 0x0a, 0x06, 0xf8, 0xfd, 0x00, 0xf3, 0xff, 0x08, 0x0b, 0xee,
  0xf1, 0x01, 0x0f, 0xfd, 0x02, 0xfb, 0xfe, 0xf1, 0xfe, 0x01, 0xf8, 0xf4,
  0x05, 0xda, 0xf8, 0xc5, 0x02, 0xf9, 0xbc, 0xe3, 0x00, 0xdd, 0xd7, 0x00,
  0xfc, 0x00, 0xd4, 0xfb, 0x07, 0xfa, 0x01, 0xfa, 0xfc, 0xf4, 0x01, 0xfe,
  0xfe, 0xff, 0xff, 0x00, 0x05, 0x08, 0xfe, 0x01, 0x05, 0xfd, 0x00, 0xfa,
  0xf9, 0x07, 0x10, 0x0b, 0xfb, 0x02, 0xfc, 0xff, 0xfe, 0x04, 0x0c, 0xfe,
  0xf2, 0x00, 0x04, 0x00, 0x07, 0x03, 0x05, 0xe4, 0xff, 0x03, 0x0d, 0xfb,
  0x04, 0x09, 0xf3, 0xfa, 0xfe, 0xf5, 0x09, 0xfb, 0xdb, 0xfe, 0x02, 0xf8,
  0x03, 0xfe, 0xf1, 0x06, 0xe6, 0xf5, 0x03, 0x01, 0xfe, 0xf7, 0xff, 0x16,
  0x08, 0xfb, 0xfa, 0xfd, 0xf0, 0xef, 0x01, 0x11, 0xe4, 0x0c, 0x11, 0x04,
  0x0c, 0xf7, 0x0c, 0xff, 0xed, 0x08, 0xf4, 0x0c, 0xff, 0xff, 0x06, 0x0a,
  0xf4, 0xff, 0x10, 0x0c, 0xea, 0xf6, 0xfc, 0x00, 0xfd, 0x09, 0x04, 0xfc,
  0x03, 0x06, 0x09, 0xfe, 0xf7, 0x00, 0xef, 0xfe, 0xf4, 0x04, 0x0a, 0xfb,
  0xfd, 0xeb, 0x04, 0x03, 0xf8, 0xfa, 0xfb, 0xf3, 0xfb, 0xfe, 0xfc, 0xfa,
  0xfc, 0xff, 0x0b, 0xfe, 0x02, 0x04, 0x05, 0xf8, 0xff, 0xfc, 0xf9, 0xfd,
  0xe4, 0xd4, 0xf9, 0xe9, 0xff, 0xfc, 0xaf, 0xfb, 0xfc, 0xf7, 0xf1, 0x04,
  0xf4, 0x02, 0xe7, 0x02, 0xfb, 0xea, 0x05, 0xe9, 0xfe, 0xf9, 0xfc, 0xfd,
  0x05, 0x01, 0xfa, 0xfc, 0xff, 0xfc, 0xfe, 0xfa, 0x01, 0xf6, 0x05, 0xff,
  0xf5, 0xf5, 0x07, 0xff, 0xfa, 0xfd, 0xf0, 0xf3, 0x01, 0x0c, 0xff, 0xfb,
  0xff, 0x04, 0xf1, 0xff, 0x06, 0xf5, 0xff, 0xf3, 0xf3, 0x04, 0xf3, 0xfb,
  0x06, 0x01, 0xfb, 0x07, 0x06, 0x00, 0xfe, 0xfe, 0xd3, 0x01, 0xff, 0xf6,
  0x02, 0xf6, 0xee, 0x05, 0xe3, 0x09, 0xf7, 0x11, 0x01, 0xf8, 0x00, 0xf8,
  0x06, 0x06, 0xf9, 0x10, 0xf1, 0xfa, 0x02, 0x08, 0xd9, 0x11, 0x13, 0xf5,
  0xfc, 0xec, 0x0c, 0x03, 0xea, 0xfb, 0xec, 0x06, 0xf5, 0xff, 0xf6, 0xfe,
  0x07, 0x0b, 0x05, 0x07, 0xe6, 0xfa, 0x00, 0xf3, 0xe4, 0x08, 0x13, 0xf9,
  0xf5, 0xe3, 0x09, 0xfa, 0xda, 0xee, 0xf0, 0xe0, 0xf5, 0x02, 0x01, 0x03,
  0xf7, 0x04, 0x05, 0xf3, 0x07, 0xfb, 0xf6, 0xf5, 0xf9, 0xed, 0xf9, 0xf1,
  0xfa, 0xfd, 0xff, 0xf2, 0xfd, 0x0c, 0xfc, 0x01, 0xff, 0xf1, 0xf5, 0xfa,
  0xec, 0xd2, 0xf3, 0xf7, 0xfe, 0xf9, 0xc6, 0xea, 0xfe, 0xfc, 0xfb, 0xfc,
  0x05, 0x07, 0xf3, 0x0d, 0xfd, 0x01, 0x0b, 0xde, 0xfe, 0x03, 0x08, 0xfb,
  0xfc, 0xfa, 0xf0, 0xf3, 0x00, 0xec, 0xfe, 0x0a, 0x02, 0x02, 0x06, 0x03,
  0x03, 0xfb, 0xfc, 0x00, 0xfe, 0x06, 0x00, 0xec, 0x00, 0xff, 0xf4, 0x0e,
  0xff, 0x00, 0xf4, 0xf8, 0x05, 0xf4, 0xfd, 0xee, 0xf3, 0xf6, 0xf7, 0x0b,
  0xf8, 0xf6, 0xf9, 0x01, 0x03, 0xf7, 0x00, 0xf0, 0xe9, 0x08, 0xee, 0xf9,
  0x02, 0xfb, 0xee, 0xfc, 0xef, 0xe4, 0xf6, 0xf3, 0x06, 0xf8, 0xf4, 0x10,
  0xfd, 0x03, 0x02, 0x06, 0xfb, 0xf6, 0xf5, 0xfa, 0xfd, 0x05, 0x0b, 0xfe,
  0xf9, 0xf4, 0xfe, 0xfe, 0xf0, 0xef, 0xf7, 0xf1, 0xed, 0xf8, 0xf7, 0xf1,
  0xee, 0x08, 0x09, 0x0d, 0xe7, 0x00, 0x01, 0xf2, 0xec, 0x0f, 0x14, 0xf6,
  0xfa, 0xf8, 0x01, 0xfd, 0xd9, 0xf4, 0xf9, 0x00, 0xe9, 0x00, 0x07, 0xf4,
  0xfd, 0xec, 0x04, 0xee, 0x02, 0x01, 0xee, 0xfa, 0x01, 0xf1, 0xf3, 0x14,
  0xfb, 0x04, 0xf4, 0xf1, 0x03, 0xf3, 0x07, 0xf4, 0xff, 0xed, 0xf2, 0x00,
  0xe3, 0xd5, 0xfd, 0xff, 0xfc, 0xf9, 0xdb, 0xf7, 0x04, 0x03, 0xfd, 0x01,
  0xf9, 0x09, 0xf6, 0x06, 0x04, 0x01, 0xff, 0x04, 0xfa, 0x06, 0x0b, 0xfb,
  0x0a, 0xfd, 0xf6, 0x04, 0x01, 0x09, 0x04, 0x04, 0xfc, 0x0d, 0x04, 0x03,
  0x04, 0xfd, 0x06, 0xfd, 0x05, 0x01, 0x02, 0xfd, 0xfb, 0x00, 0xfb, 0x08,
  0x01, 0xfb, 0xf5, 0xfd, 0xfb, 0xfb, 0x01, 0xeb, 0xfa, 0x00, 0xf4, 0x0d,
  0x0c, 0x05, 0x02, 0x03, 0xf5, 0xef, 0x05, 0x00, 0xf3, 0x00, 0xf3, 0x0f,
  0x08, 0xfa, 0xf8, 0xfe, 0xf3, 0xef, 0xf5, 0x12, 0xea, 0x02, 0xf4, 0x05,
  0x01, 0x03, 0x0f, 0xfe, 0x02, 0x0c, 0x08, 0x01, 0x05, 0x04, 0x04, 0xfd,
  0xff, 0x02, 0x0b, 0xff, 0xf1, 0xf4, 0xfa, 0x00, 0xef, 0xfc, 0x02, 0x03,
  0xf5, 0x03, 0x06, 0xfe, 0xf2, 0xf6, 0x03, 0xf6, 0xff, 0x03, 0x06, 0x0a,
  0x04, 0xf9, 0xfe, 0xff, 0xec, 0xfc, 0xf8, 0x08, 0xf2, 0x01, 0x10, 0x04,
  0xff, 0xf7, 0xfe, 0x01, 0xfa, 0x0f, 0xff, 0x01, 0xfc, 0x05, 0x01, 0x0d,
  0xfd, 0xfe, 0xf5, 0xf7, 0x00, 0xfc, 0x0a, 0xff, 0xff, 0xf2, 0xfd, 0x06,
  0x0c, 0xd3, 0x03, 0xfd, 0x02, 0xea, 0xf5, 0xf0, 0xff, 0xfa, 0xf5, 0x04,
  0x03, 0x00, 0xf2, 0x05, 0xfb, 0xe6, 0x05, 0xeb, 0xfd, 0x06, 0x06, 0xfe,
  0x0c, 0xfc, 0xf3, 0x05, 0x08, 0x07, 0x01, 0x0e, 0x03, 0x05, 0x03, 0x00,
  0x01, 0xfd, 0xff, 0xff, 0x05, 0xfc, 0xfb, 0x08, 0xfc, 0x05, 0xfb, 0x0e,
  0xf9, 0x02, 0xf3, 0x07, 0xfa, 0xf9, 0xf9, 0x0a, 0xf8, 0x04, 0xfb, 0x04,
  0x0c, 0x02, 0x03, 0x00, 0xfb, 0xf6, 0xfc, 0xf1, 0xe4, 0x00, 0xf6, 0x07,
  0xfd, 0xfd, 0x0f, 0x07, 0xfd, 0x05, 0xfe, 0x00, 0xf3, 0x03, 0xf6, 0xff,
  0x00, 0x0e, 0x06, 0xf7, 0x17, 0x11, 0x01, 0xf9, 0xfa, 0xfd, 0xfb, 0xee,
  0xfd, 0x07, 0x12, 0x05, 0xfa, 0xf9, 0xfc, 0xef, 0xf1, 0x0c, 0x06, 0xdb,
  0x00, 0x02, 0x04, 0x06, 0xf5, 0xea, 0x07, 0xdb, 0x02, 0x09, 0x08, 0xe2,
  0xf1, 0xf6, 0x02, 0xf9, 0xf5, 0xef, 0xf9, 0xf0, 0xf0, 0xff, 0x0c, 0x04,
  0x01, 0xfd, 0xf8, 0x05, 0x02, 0xfe, 0x14, 0xf5, 0xfa, 0x04, 0x08, 0x0f,
  0x0b, 0x09, 0x06, 0xfe, 0x08, 0x08, 0x10, 0x02, 0x00, 0xf4, 0x05, 0x08,
  0x03, 0xdf, 0x02, 0x02, 0xfc, 0xeb, 0xf9, 0x01, 0xfc, 0x02, 0xfe, 0x04,
  0xfc, 0x02, 0x01, 0x0a, 0xf5, 0xf1, 0x04, 0xf7, 0x00, 0x0d, 0x07, 0xfd,
  0xfb, 0xfa, 0xe8, 0x02, 0x07, 0x01, 0xfa, 0x0c, 0x01, 0x02, 0xf8, 0x04,
  0x06, 0xf5, 0xed, 0x00, 0xff, 0xfe, 0xfa, 0xfd, 0xf8, 0x01, 0xfe, 0xfc,
  0xf4, 0xfa, 0x00, 0x05, 0xf7, 0xe8, 0xfa, 0xe9, 0xfc, 0x00, 0xf5, 0x00,
  0xfa, 0xfc, 0x04, 0xfb, 0x00, 0xef, 0xff, 0xfd, 0xfa, 0xf9, 0xf4, 0x0b,
  0x06, 0x06, 0x18, 0x01, 0x00, 0x08, 0xfd, 0x06, 0x14, 0x00, 0xf9, 0xfd,
  0xfd, 0x03, 0x09, 0xf1, 0x0b, 0x13, 0xea, 0xf9, 0x19, 0xfb, 0xf7, 0xe1,
  0xfe, 0x09, 0x0b, 0x02, 0x01, 0xf2, 0x00, 0x03, 0xfd, 0x05, 0xff, 0xcf,
  0xf7, 0x14, 0x06, 0x04, 0xef, 0xed, 0x0d, 0xef, 0x06, 0x02, 0x05, 0xfd,
  0xf6, 0xf0, 0x01, 0xfa, 0xe3, 0xf2, 0xf9, 0xe0, 0xfe, 0xfc, 0x07, 0x02,
  0xfe, 0x05, 0xf8, 0x07, 0x03, 0xf0, 0xff, 0x03, 0xf9, 0x06, 0x0c, 0x02,
  0xfd, 0xfb, 0x07, 0xee, 0xfc, 0x13, 0x08, 0x00, 0xfc, 0xf6, 0x02, 0x07,
  0x07, 0xdb, 0x04, 0xff, 0xff, 0xf9, 0xfa, 0xe9, 0xfe, 0x03, 0xfe, 0x00,
  0x0a, 0xfd, 0xf9, 0x02, 0xf2, 0xf1, 0x00, 0xf7, 0xff, 0x0b, 0x0c, 0xfb,
  0x10, 0xf8, 0xfe, 0x05, 0x03, 0xf8, 0x0f, 0xfe, 0xfd, 0x12, 0x04, 0x00,
  0x04, 0xf8, 0x01, 0xee, 0x01, 0xf1, 0xfb, 0xeb, 0xfa, 0xfb, 0xee, 0x05,
  0xf9, 0xf7, 0x04, 0x05, 0xf5, 0xf3, 0xfc, 0xe3, 0x03, 0xfb, 0xfa, 0xfc,
  0xfa, 0xf9, 0x15, 0x00, 0x02, 0xe4, 0xf9, 0x00, 0xfe, 0xff, 0xee, 0x12,
  0x01, 0x09, 0x11, 0xff, 0x04, 0x04, 0xfd, 0xed, 0x1c, 0x00, 0xef, 0xf8,
  0xec, 0xfc, 0x10, 0xf0, 0x0b, 0x0e, 0xe9, 0xec, 0x2d, 0xff, 0xf8, 0x06,
  0xed, 0x0f, 0xff, 0xff, 0x19, 0xed, 0x0b, 0xde, 0x0d, 0x00, 0xf5, 0xe1,
  0x00, 0x0d, 0x00, 0xfe, 0x0b, 0xef, 0x08, 0xf0, 0x08, 0xfd, 0x06, 0xfa,
  0xe9, 0xfc, 0xff, 0xff, 0xe8, 0xf3, 0xfd, 0xe3, 0x00, 0xfb, 0xff, 0x02,
  0xf5, 0xe3, 0xff, 0x00, 0xf3, 0xff, 0xf6, 0x05, 0xf7, 0x02, 0x0f, 0xf2,
  0x08, 0x07, 0x01, 0xf6, 0xfc, 0x04, 0x0f, 0xfc, 0xfc, 0xf6, 0x04, 0x02,
  0x0c, 0xe1, 0xff, 0xfe, 0xff, 0xff, 0xfe, 0xf6, 0x00, 0x00, 0xff, 0x00,
  0xf8, 0xef, 0xfe, 0xfd, 0xfb, 0xfa, 0xfa, 0x03, 0x01, 0x08, 0xfe, 0xff,
  0x08, 0x08, 0x01, 0x04, 0x05, 0xff, 0x03, 0x17, 0x00, 0xfa, 0x02, 0x01,
  0xff, 0x00, 0xf6, 0xf9, 0xf2, 0xf5, 0x01, 0xe8, 0xf9, 0xfc, 0xfe, 0x0d,
  0xfb, 0x00, 0x0a, 0x02, 0xf6, 0xec, 0x01, 0xf4, 0x08, 0x02, 0xf6, 0x17,
  0xfa, 0xfc, 0x12, 0x05, 0xf6, 0xee, 0x05, 0xe3, 0x0c, 0x04, 0xf6, 0x0d,
  0x01, 0x01, 0x14, 0xfd, 0x04, 0xfd, 0xfe, 0xf9, 0x27, 0x00, 0xf9, 0xfe,
  0xe1, 0x02, 0x19, 0xf6, 0x00, 0x11, 0xef, 0xe7, 0x3a, 0x02, 0xf4, 0xec,
  0x06, 0x19, 0xfc, 0x04, 0x19, 0xf0, 0x08, 0xed, 0x07, 0xfc, 0xfc, 0xe4,
  0x02, 0x08, 0x05, 0x05, 0x09, 0xf7, 0x06, 0xfd, 0x0d, 0xff, 0xfc, 0xfe,
  0xf6, 0xfe, 0x01, 0xf8, 0xf2, 0xf1, 0x05, 0xf2, 0xfd, 0xf7, 0x0a, 0x04,
  0x00, 0xf3, 0xfe, 0xf9, 0x00, 0xf3, 0x00, 0x05, 0xf3, 0xfc, 0x0c, 0x01,
  0x09, 0x0b, 0x00, 0xf8, 0x06, 0x0c, 0x06, 0xf1, 0xfe, 0xef, 0x01, 0x09,
  0x0c, 0xf4, 0xfc, 0xf9, 0xfa, 0xed, 0x0a, 0x08, 0x01, 0xff, 0x00, 0x04,
  0x04, 0xfd, 0xf9, 0x05, 0xf8, 0x07, 0x01, 0xfd, 0xfc, 0x0e, 0x01, 0xfa,
  0xf4, 0xf5, 0xfc, 0xfc, 0xfc, 0xf6, 0xf6, 0x08, 0x03, 0xff, 0xec, 0x01,
  0x0a, 0x06, 0xf8, 0x02, 0xf9, 0x02, 0x03, 0xfb, 0xfb, 0xfe, 0xf5, 0x01,
  0xff, 0xfd, 0x0b, 0x04, 0xfa, 0xf4, 0x01, 0xed, 0xff, 0xfd, 0x00, 0x09,
  0x05, 0x02, 0x1a, 0x08, 0x06, 0x01, 0x03, 0xea, 0x0d, 0x04, 0xfa, 0xf9,
  0x05, 0x02, 0x19, 0xf7, 0x00, 0xfe, 0x04, 0xfa, 0x1b, 0xfb, 0xf6, 0xfb,
  0xf9, 0x0c, 0x1f, 0xfe, 0x02, 0x0d, 0x06, 0xda, 0x33, 0x0d, 0xf2, 0x01,
  0xf3, 0x14, 0xfb, 0xfd, 0x19, 0xcf, 0x08, 0xde, 0x14, 0xfd, 0xf7, 0xf1,
  0x00, 0x08, 0x00, 0xfd, 0x16, 0x00, 0xfa, 0x02, 0x12, 0xfe, 0x06, 0xf6,
  0xfd, 0x07, 0x01, 0x02, 0x02, 0x09, 0x02, 0x0b, 0x05, 0x01, 0x03, 0x00,
  0xff, 0xf1, 0xf8, 0xfc, 0xfa, 0x01, 0xf1, 0x08, 0xf1, 0xfe, 0x01, 0xf2,
  0x00, 0xfe, 0xfe, 0xf5, 0xfc, 0x09, 0x08, 0x0a, 0xf9, 0xf5, 0x0e, 0x05,
  0x00, 0xf5, 0x01, 0x05, 0xfe, 0x08, 0xf5, 0x12, 0xfe, 0x04, 0x08, 0x01,
  0x0d, 0x05, 0xe7, 0x08, 0x05, 0x0e, 0xfe, 0x0a, 0xfe, 0xfd, 0x0e, 0x00,
  0x05, 0xfb, 0xe9, 0x09, 0xf6, 0x03, 0xf9, 0x07, 0xff, 0xff, 0x0d, 0x05,
  0x04, 0xfc, 0xf0, 0x03, 0x01, 0x06, 0x00, 0x02, 0x06, 0xf8, 0x05, 0x09,
  0x0f, 0x01, 0x08, 0xfc, 0xf9, 0xf8, 0x0b, 0xf9, 0x09, 0xf8, 0xfd, 0x07,
  0xff, 0x08, 0x18, 0xfe, 0x03, 0xf0, 0x09, 0xec, 0x0c, 0xff, 0xf2, 0xed,
  0xf8, 0x0b, 0x33, 0x00, 0x10, 0xe7, 0x07, 0x02, 0x16, 0x0a, 0x13, 0xf9,
  0x0f, 0x1c, 0x32, 0xff, 0x13, 0x3f, 0x0d, 0x18, 0x2c, 0x05, 0x0d, 0xed,
  0xed, 0x1e, 0x0d, 0x1a, 0x01, 0xe5, 0x17, 0xf4, 0x0a, 0x12, 0xf2, 0xe0,
  0xf5, 0xf5, 0x03, 0xee, 0x12, 0xed, 0xfb, 0xe6, 0x13, 0xf9, 0x05, 0xe0,
  0xfa, 0x15, 0x04, 0x04, 0xee, 0xf3, 0x13, 0xf4, 0x16, 0x02, 0x07, 0x0c,
  0x0b, 0xe6, 0xf3, 0xfb, 0xff, 0xf9, 0xfe, 0x03, 0x05, 0xf8, 0xfe, 0x0b,
  0x08, 0xe6, 0xfd, 0xf8, 0xfe, 0x09, 0xf4, 0x0b, 0xfa, 0xf6, 0x0b, 0xfe,
  0x07, 0x06, 0x0d, 0x03, 0x00, 0x0b, 0x0d, 0x0e, 0x00, 0x04, 0x09, 0x00,
  0xfc, 0x03, 0x03, 0x01, 0x07, 0xea, 0xf9, 0xf1, 0x0a, 0xfc, 0x03, 0x09,
  0x00, 0xf1, 0xfb, 0xed, 0xfc, 0xd1, 0x0a, 0x0a, 0x0b, 0xed, 0x02, 0x08,
  0x02, 0x0b, 0x0a, 0xfd, 0x04, 0xeb, 0x04, 0xfe, 0x0a, 0xf9, 0xf7, 0x04,
  0x03, 0x0e, 0xfb, 0xf5, 0x08, 0xff, 0xfe, 0xf6, 0xf6, 0xfb, 0x0e, 0xf7,
  0x0f, 0x0b, 0x1c, 0x05, 0xfa, 0x09, 0x08, 0xe8, 0xec, 0x04, 0x0d, 0xf9,
  0x0e, 0xf0, 0xf2, 0x18, 0xe5, 0x08, 0x08, 0xf0, 0x09, 0xf9, 0x07, 0x00,
  0x09, 0xf4, 0x00, 0xff, 0xed, 0x04, 0xf8, 0xfd, 0xff, 0xf9, 0x06, 0x0c,
  0xf9, 0xf4, 0xf8, 0xf4, 0xe6, 0x0f, 0x00, 0x26, 0xf1, 0xfa, 0xf8, 0x05,
  0x04, 0x0b, 0x15, 0x0d, 0xe7, 0x11, 0x02, 0x15, 0xf0, 0x16, 0xf8, 0xf3,
  0x06, 0x17, 0x0f, 0x07, 0xff, 0xfa, 0x03, 0x03, 0x06, 0x02, 0x05, 0xfc,
  0xf5, 0xdf, 0xfb, 0xfd, 0x09, 0xe0, 0x02, 0xdc, 0x07, 0x05, 0xef, 0x0c,
  0xf9, 0xe4, 0x01, 0xf2, 0x08, 0x01, 0xf2, 0xee, 0x0e, 0xf6, 0xe9, 0x01,
  0x01, 0xfa, 0xeb, 0xe5, 0x0b, 0xd6, 0xf3, 0xe8, 0x08, 0xc8, 0xef, 0x09,
  0x01, 0x05, 0x05, 0xfa, 0x01, 0xe7, 0x05, 0xe5, 0x09, 0xe5, 0xf8, 0x06,
  0x03, 0x10, 0xfb, 0x0c, 0x06, 0xf5, 0x04, 0xf5, 0x00, 0x07, 0x13, 0x04,
  0x02, 0x03, 0x1d, 0xfd, 0x04, 0xf1, 0x08, 0xf1, 0xeb, 0xf4, 0x07, 0xff,
  0xfb, 0xfc, 0xf6, 0xf3, 0x00, 0xe4, 0xf7, 0xf8, 0x0e, 0xf9, 0x07, 0xea,
  0x02, 0xfe, 0xf7, 0xf5, 0x01, 0xee, 0x02, 0xf4, 0x07, 0xfb, 0x0d, 0xfa,
  0x05, 0xfa, 0xf1, 0x03, 0x03, 0x00, 0xf0, 0xfe, 0xf9, 0xf9, 0x07, 0x0e,
  0xf9, 0xdd, 0xe9, 0xfc, 0xe6, 0xef, 0x08, 0x00, 0xed, 0xf6, 0xf4, 0x0e,
  0xfa, 0xf5, 0xeb, 0xfb, 0xe8, 0x09, 0xfa, 0x13, 0xe2, 0xf6, 0xfa, 0xf8,
  0xfa, 0xfb, 0xf8, 0x0a, 0xea, 0xf4, 0xfa, 0x08, 0x0c, 0x0a, 0x01, 0x0c,
  0x08, 0xc6, 0x03, 0xf4, 0x0c, 0xfd, 0xe7, 0x0b, 0x13, 0xfc, 0xf9, 0xef,
  0x0b, 0x0c, 0xfe, 0x01, 0x0e, 0xef, 0xf7, 0x09, 0x02, 0x07, 0x02, 0xff,
  0x03, 0xfb, 0xff, 0x06, 0x05, 0xe9, 0x00, 0xf1, 0x0a, 0x0e, 0xfc, 0x0b,
  0xf7, 0xbd, 0xfe, 0xe6, 0x0a, 0xe0, 0xac, 0xc7, 0x0a, 0xf0, 0xf6, 0x03,
  0x02, 0x08, 0xe6, 0x09, 0x07, 0xfd, 0x00, 0xcd, 0x0a, 0x01, 0x06, 0x01,
  0xfa, 0x04, 0xf0, 0x04, 0xfc, 0xf9, 0x01, 0xd3, 0x00, 0x05, 0x02, 0xf9,
  0x0b, 0x06, 0x0a, 0xf6, 0x02, 0xed, 0x07, 0xfa, 0xfe, 0xf9, 0xfc, 0xf8,
  0x07, 0x03, 0x1d, 0xff, 0x01, 0xea, 0xff, 0x02, 0xe1, 0x09, 0x01, 0x02,
  0xff, 0xee, 0x0f, 0x01, 0xf9, 0xf9, 0xf1, 0xf3, 0xf7, 0x0c, 0x01, 0x00,
  0xf8, 0xf2, 0xfe, 0x0a, 0x0a, 0x1f, 0x04, 0x02, 0xf6, 0x05, 0x08, 0xff,
  0xf7, 0xf0, 0xe6, 0xfc, 0x0a, 0x18, 0xfd, 0xf5, 0x09, 0xf1, 0xf8, 0x0c,
  0x00, 0xf3, 0xee, 0x0f, 0x05, 0x16, 0x07, 0xf3, 0xfd, 0x0c, 0xf4, 0x11,
  0xfb, 0x0b, 0xf2, 0x00, 0xf6, 0xf5, 0xfa, 0x05, 0xeb, 0xf8, 0xf6, 0xfc,
  0x06, 0xfd, 0xf3, 0x01, 0xf4, 0x01, 0x01, 0xfd, 0xff, 0x05, 0x0a, 0x01,
  0xff, 0x04, 0x03, 0xfe, 0xf8, 0x06, 0x05, 0xf7, 0x05, 0x01, 0x01, 0x06,
  0x05, 0x08, 0x03, 0x09, 0xfc, 0xfe, 0xeb, 0xdd, 0x05, 0x0a, 0x07, 0xfe,
  0xdd, 0xdb, 0xfd, 0xfe, 0x01, 0xed, 0xe1, 0xd4, 0x0b, 0x01, 0xec, 0x06,
  0xff, 0x00, 0x00, 0x07, 0x07, 0xfe, 0xff, 0xcd, 0x08, 0x0f, 0xfc, 0x02,
  0x07, 0x04, 0x05, 0x08, 0xff, 0x02, 0x06, 0xf3, 0x00, 0x0f, 0x00, 0x03,
  0x05, 0x00, 0x03, 0x03, 0x03, 0x0a, 0xfa, 0xfe, 0xf3, 0x10, 0x02, 0xf8,
  0x04, 0xfa, 0x0c, 0x06, 0xfe, 0xf4, 0xfb, 0xf4, 0xef, 0x0c, 0xfc, 0xe7,
  0x02, 0xf1, 0x08, 0xf8, 0xe9, 0xf4, 0x0c, 0x03, 0xe4, 0x04, 0xf9, 0xfb,
  0x03, 0x03, 0x0f, 0x00, 0x11, 0x13, 0x08, 0x0b, 0xe6, 0x06, 0xff, 0x01,
  0x06, 0xf4, 0xf5, 0xff, 0x09, 0x11, 0x06, 0x05, 0xed, 0xf4, 0xf9, 0x0d,
  0x00, 0xfd, 0xfd, 0x05, 0x03, 0x19, 0x0c, 0x0e, 0xfb, 0x04, 0x04, 0xf8,
  0x07, 0xff, 0xf6, 0x00, 0xf3, 0xfe, 0x06, 0xf0, 0xfe, 0x0b, 0x00, 0x0d,
  0x01, 0xfe, 0xf4, 0x02, 0x0e, 0xf4, 0xf3, 0xe7, 0xf3, 0x00, 0xfd, 0xfa,
  0xf8, 0x0b, 0x00, 0x00, 0xfe, 0x0c, 0xf6, 0xf3, 0xfc, 0x03, 0x03, 0xf1,
  0xfe, 0x06, 0xfd, 0x05, 0x06, 0x02, 0xfd, 0xd7, 0x01, 0x06, 0x01, 0xf9,
  0xf4, 0xe8, 0xfe, 0xfb, 0x05, 0xf0, 0xdf, 0xc4, 0x0a, 0xfb, 0xf4, 0xfd,
  0xf7, 0xfe, 0x0c, 0x0d, 0x01, 0xfa, 0x01, 0xc9, 0x0a, 0x17, 0xf8, 0x03,
  0xfd, 0x01, 0x03, 0x08, 0x02, 0xfc, 0xfe, 0xee, 0x02, 0x0a, 0x04, 0x03,
  0xf9, 0xfc, 0x04, 0x03, 0x03, 0x02, 0xfd, 0xe3, 0xf8, 0x09, 0x06, 0x0f,
  0x01, 0xfd, 0x08, 0x02, 0x00, 0x03, 0xfe, 0x08, 0xf9, 0x04, 0x04, 0xff,
  0x09, 0x04, 0x04, 0xff, 0xf2, 0xff, 0x0d, 0x11, 0xee, 0x05, 0x00, 0xf1,
  0x0c, 0x01, 0x17, 0xf6, 0x08, 0x08, 0xfe, 0x16, 0xe5, 0xfd, 0xfb, 0x05,
  0x04, 0xf4, 0xeb, 0xff, 0xfc, 0xf7, 0xf8, 0x06, 0xe1, 0xf8, 0xf5, 0x06,
  0x01, 0x07, 0xfb, 0xfc, 0x02, 0x07, 0x05, 0x00, 0xef, 0xff, 0x07, 0xf5,
  0x0c, 0x0f, 0x05, 0xfe, 0xff, 0xfc, 0x04, 0xf9, 0xfd, 0xfe, 0x02, 0x09,
  0xfe, 0xf4, 0x00, 0x01, 0xfa, 0x00, 0xf9, 0xf1, 0xf0, 0x07, 0xfe, 0x03,
  0xfb, 0x05, 0xfe, 0xfa, 0xf3, 0xf3, 0xfd, 0xf2, 0xfc, 0xfe, 0xff, 0x07,
  0x01, 0x00, 0xff, 0x06, 0x02, 0x03, 0xff, 0xd9, 0x00, 0xff, 0x03, 0x04,
  0xfd, 0xee, 0xfa, 0xf4, 0xff, 0xfe, 0xfd, 0xd8, 0x07, 0xf5, 0xf8, 0xfc,
  0x01, 0x03, 0xfc, 0x08, 0x04, 0xfc, 0x03, 0xd2, 0x05, 0x14, 0xf6, 0xff,
  0xfc, 0xff, 0x0b, 0x04, 0xfd, 0xf1, 0x04, 0xde, 0xf2, 0x0c, 0xfd, 0x03,
  0x02, 0xff, 0x02, 0x00, 0x00, 0xec, 0x01, 0xf5, 0xf9, 0x03, 0x06, 0xff,
  0x01, 0x05, 0x0b, 0xf8, 0x04, 0x01, 0x01, 0x07, 0xf2, 0xfc, 0x00, 0xed,
  0x14, 0x02, 0x02, 0xfd, 0xfc, 0xfb, 0x01, 0x09, 0xfe, 0x02, 0x0d, 0xf9,
  0x05, 0x02, 0x07, 0x01, 0x04, 0xfb, 0x07, 0x0f, 0xea, 0xfe, 0x04, 0xf3,
  0x0c, 0xe6, 0xf1, 0x04, 0xe6, 0x03, 0xed, 0x0b, 0x00, 0xe9, 0x02, 0xf7,
  0x0e, 0xfd, 0xef, 0xfd, 0xfe, 0xfb, 0xfd, 0x07, 0x0d, 0xfa, 0x00, 0xfc,
  0x0b, 0x05, 0x04, 0xf1, 0x10, 0xfc, 0xf5, 0x02, 0xfb, 0xf5, 0xfd, 0x04,
  0x04, 0x05, 0xfd, 0x02, 0x05, 0xfc, 0x00, 0x06, 0xda, 0x06, 0x0b, 0xf6,
  0xfe, 0x0b, 0x01, 0xff, 0xed, 0xee, 0x06, 0xf9, 0xf1, 0xfd, 0x03, 0x0c,
  0xf4, 0xf5, 0x02, 0xfa, 0x02, 0xf8, 0xf1, 0xff, 0xff, 0x03, 0xfe, 0x10,
  0xfa, 0x0e, 0xfb, 0xf4, 0x05, 0x01, 0xec, 0xf8, 0x04, 0xf5, 0x02, 0x07,
  0x03, 0x05, 0x00, 0x04, 0x06, 0xfc, 0x03, 0xda, 0x03, 0x05, 0xf0, 0x07,
  0x00, 0xfe, 0x11, 0x03, 0xf7, 0xff, 0x01, 0xf2, 0xf8, 0x03, 0x0a, 0x08,
  0x03, 0x00, 0x0e, 0xfe, 0x03, 0xf4, 0x03, 0x06, 0xed, 0xff, 0xfd, 0x12,
  0x04, 0x06, 0x07, 0x01, 0x06, 0x04, 0x07, 0xfa, 0x06, 0xff, 0xfe, 0xf3,
  0x04, 0xfe, 0x0b, 0xff, 0x03, 0x04, 0x02, 0xfe, 0xf1, 0xfc, 0x03, 0xf3,
  0x05, 0x0c, 0xfd, 0x0b, 0x05, 0x0b, 0x09, 0xfc, 0x0b, 0x0e, 0x03, 0x02,
  0x03, 0xec, 0xef, 0x03, 0xfb, 0xfd, 0xed, 0xfd, 0x06, 0xec, 0xff, 0x09,
  0x0b, 0xf9, 0xe8, 0xfe, 0x06, 0x07, 0x05, 0xfe, 0xf5, 0xf9, 0xfc, 0xfb,
  0x00, 0xf9, 0x04, 0xf7, 0x03, 0x08, 0xf5, 0xfc, 0xea, 0xfe, 0xf8, 0xff,
  0x01, 0xff, 0xfd, 0xfc, 0x02, 0xf7, 0xfb, 0xfd, 0xec, 0x00, 0x03, 0x12,
  0xfc, 0x0f, 0x09, 0xfb, 0x00, 0xf3, 0x0c, 0x01, 0xe1, 0xfb, 0x03, 0x07,
  0xfb, 0xf9, 0xfe, 0xfc, 0xfb, 0xf5, 0x03, 0xed, 0xff, 0x03, 0xfb, 0x1a,
  0x07, 0xfd, 0xfe, 0xf3, 0x06, 0xf1, 0xf4, 0xef, 0x07, 0xfb, 0xff, 0x11,
  0x08, 0x02, 0xf3, 0xf9, 0x07, 0x05, 0xfa, 0xe4, 0x06, 0xfb, 0xf3, 0x00,
  0x03, 0x00, 0x08, 0x00, 0x01, 0xfe, 0x02, 0xfd, 0xf8, 0x00, 0x01, 0x0f,
  0xfc, 0x04, 0x04, 0xfe, 0x08, 0xfc, 0xff, 0xfd, 0xec, 0xff, 0x01, 0x0c,
  0x01, 0x04, 0x02, 0x06, 0xfc, 0xff, 0x05, 0xef, 0xec, 0x05, 0x02, 0xf6,
  0xf6, 0xfc, 0x06, 0xfd, 0x03, 0x0b, 0x02, 0xf8, 0xf4, 0xfc, 0xf8, 0xfc,
  0x04, 0x0a, 0xfe, 0x04, 0x00, 0xf4, 0x03, 0xfa, 0xf2, 0x00, 0x04, 0xef,
  0xff, 0xe3, 0xeb, 0x03, 0xeb, 0xfc, 0xfa, 0xf6, 0xf4, 0xf0, 0x00, 0xfe,
  0xfb, 0xf4, 0xf5, 0x0a, 0x05, 0x12, 0x01, 0x00, 0x07, 0xfe, 0xff, 0x07,
  0xf8, 0xfb, 0x06, 0xfd, 0x06, 0x06, 0xeb, 0xf5, 0xeb, 0xfc, 0xfe, 0xf8,
  0xf7, 0x00, 0xfd, 0xf5, 0x00, 0x03, 0xff, 0xea, 0xf2, 0xfd, 0x08, 0xf8,
  0xfe, 0x06, 0x08, 0xff, 0x0b, 0xfd, 0x04, 0xf3, 0xe6, 0xfa, 0xfc, 0xfc,
  0xff, 0xfa, 0xfd, 0xfc, 0x06, 0xfb, 0x02, 0xf6, 0xf0, 0xfd, 0x00, 0x0c,
  0xff, 0xfe, 0xfb, 0xfb, 0x02, 0xfb, 0x0b, 0xf1, 0x05, 0xfc, 0xf9, 0x05,
  0x02, 0xf9, 0xfb, 0xf3, 0xff, 0xf3, 0xfd, 0xe9, 0x05, 0xf5, 0x00, 0x01,
  0x01, 0xff, 0x16, 0xfa, 0x00, 0x00, 0x04, 0xf9, 0xff, 0xfb, 0x01, 0x06,
  0xfc, 0x01, 0xfe, 0x03, 0xf9, 0x01, 0xfd, 0xfe, 0xed, 0x00, 0xfb, 0xf9,
  0xf3, 0xfb, 0x00, 0xfe, 0xfe, 0xff, 0xf9, 0xf7, 0xf9, 0x01, 0xff, 0xff,
  0xfa, 0x02, 0xf2, 0xff, 0x00, 0x02, 0x01, 0xf6, 0xee, 0x04, 0x02, 0x08,
  0xfd, 0x00, 0x02, 0x03, 0xef, 0xf8, 0xff, 0x00, 0x00, 0xf7, 0xff, 0x04,
  0xf9, 0xee, 0xf8, 0x08, 0xf6, 0x01, 0xf5, 0xfd, 0xf9, 0xec, 0xfe, 0x06,
  0xfc, 0xfd, 0xff, 0x06, 0x06, 0x07, 0xf9, 0xf3, 0xfc, 0xfc, 0xfc, 0x10,
  0xfd, 0x01, 0x0c, 0x00, 0xfd, 0xfa, 0xf3, 0xfc, 0x0f, 0xfd, 0xfd, 0xfe,
  0x01, 0x03, 0xf7, 0xf6, 0xfa, 0x05, 0xfe, 0xf0, 0x04, 0xfd, 0x01, 0x06,
  0xfe, 0x06, 0x03, 0xff, 0x0b, 0xf9, 0x04, 0xf3, 0xd7, 0xfa, 0xfd, 0xf4,
  0xfc, 0x06, 0x02, 0xfb, 0xef, 0xfd, 0x08, 0xf1, 0xfc, 0xff, 0x03, 0xfd,
  0xf6, 0x08, 0xf9, 0x01, 0x06, 0xf7, 0xfb, 0xf4, 0x06, 0xfc, 0x01, 0x00,
  0xf2, 0xfa, 0x00, 0xed, 0xfa, 0xf3, 0xf5, 0xeb, 0x05, 0xf7, 0xf9, 0xff,
  0xf7, 0xfc, 0x19, 0xf9, 0x02, 0xf7, 0x01, 0xf2, 0xfe, 0x01, 0xf9, 0x09,
  0xf8, 0x02, 0x04, 0x00, 0xff, 0x02, 0xff, 0xf4, 0xeb, 0x02, 0x02, 0x02,
  0xfb, 0xfb, 0x01, 0x00, 0x04, 0x02, 0x00, 0x04, 0xce, 0xff, 0xf4, 0x01,
  0xfc, 0x02, 0xfc, 0xfd, 0xfd, 0x0b, 0xfd, 0x01, 0xf6, 0xfb, 0x00, 0xf6,
  0xfd, 0xfc, 0xf3, 0x05, 0x04, 0x07, 0x09, 0xff, 0xed, 0xf3, 0x01, 0xf6,
  0xfe, 0xf2, 0xe8, 0x0d, 0x0a, 0x06, 0xfa, 0xfa, 0xfe, 0xed, 0xf9, 0x0c,
  0xf5, 0xe8, 0xf8, 0x05, 0xfe, 0x09, 0xf9, 0x01, 0x01, 0x02, 0xfc, 0x0c,
  0xf6, 0x09, 0x0f, 0xfe, 0xf9, 0xfc, 0x05, 0xf8, 0x01, 0xfe, 0x00, 0x0b,
  0xfb, 0x08, 0xff, 0xf9, 0x0a, 0x07, 0xf9, 0xf5, 0xfa, 0x04, 0x00, 0x09,
  0x00, 0x06, 0xff, 0xf9, 0x09, 0x01, 0xff, 0xf4, 0xcf, 0xf9, 0xfe, 0xf2,
  0xf1, 0x03, 0x01, 0xfb, 0xfb, 0xfa, 0xfc, 0x02, 0xf9, 0xff, 0xfe, 0x00,
  0xf2, 0xe9, 0xf4, 0xf8, 0xfc, 0xf9, 0xef, 0xfd, 0x01, 0xf9, 0xfa, 0xfe,
  0xf5, 0xf5, 0xfc, 0xf7, 0xf7, 0x05, 0xfe, 0xfc, 0x01, 0xf5, 0xf6, 0x01,
  0xfc, 0x01, 0x0a, 0xfd, 0xfd, 0xfe, 0x00, 0x00, 0xf1, 0xfe, 0x05, 0xff,
  0x00, 0x02, 0x08, 0xfd, 0xff, 0xff, 0x01, 0xe9, 0xf0, 0x07, 0xfc, 0xe7,
  0xfe, 0x04, 0x06, 0x02, 0x0e, 0x06, 0x04, 0xfe, 0xeb, 0x09, 0xfd, 0xf3,
  0xfb, 0x03, 0xe5, 0x04, 0xff, 0x05, 0x06, 0xff, 0xf5, 0xfb, 0xfa, 0xf5,
  0xfa, 0x09, 0xf0, 0x07, 0x0f, 0x06, 0x0f, 0x08, 0xf4, 0xf6, 0x04, 0x06,
  0xff, 0xf9, 0xf8, 0x0f, 0x06, 0x0c, 0x02, 0x03, 0xf7, 0xf9, 0x07, 0x06,
  0xf8, 0xea, 0xff, 0x08, 0x01, 0x0b, 0xf9, 0xf8, 0xf7, 0x03, 0x05, 0xfa,
  0xfe, 0x08, 0x02, 0xff, 0x02, 0x05, 0xf2, 0xf1, 0xf2, 0x03, 0xf8, 0xff,
  0xfb, 0x0c, 0x05, 0x0c, 0x06, 0x04, 0x04, 0xf5, 0xf6, 0x07, 0xff, 0xfa,
  0xfb, 0x05, 0x02, 0x00, 0x0e, 0xff, 0x06, 0xe5, 0xdc, 0xfe, 0xff, 0xf2,
  0xf6, 0x05, 0xfb, 0x00, 0x0b, 0xfb, 0x07, 0xf6, 0xfb, 0xfe, 0xf9, 0x01,
  0xfb, 0xe6, 0xf9, 0xf7, 0xfe, 0xf4, 0xf7, 0x06, 0x04, 0xf6, 0xf9, 0x09,
  0xfd, 0xff, 0x07, 0xf7, 0xfd, 0x05, 0x01, 0x04, 0x07, 0xef, 0xed, 0x04,
  0x08, 0x08, 0x0c, 0x01, 0x00, 0x02, 0x05, 0x00, 0xf4, 0x01, 0xfc, 0x07,
  0x0a, 0xff, 0x07, 0xf8, 0x0c, 0xf8, 0xfa, 0x03, 0xf8, 0x07, 0x01, 0xfc,
  0x05, 0x03, 0x00, 0x06, 0x0a, 0xf9, 0xff, 0x0b, 0xf4, 0x07, 0x04, 0xea,
  0x01, 0x0c, 0xfe, 0x02, 0x09, 0x08, 0x15, 0x01, 0xfb, 0x04, 0x00, 0xfd,
  0xf6, 0xf9, 0xf2, 0x00, 0x05, 0x01, 0x10, 0x0c, 0xf7, 0xf7, 0xff, 0xf0,
  0xf9, 0xe3, 0xf7, 0x00, 0x0c, 0x0a, 0x0c, 0x00, 0xef, 0xf1, 0xfa, 0x09,
  0xf9, 0xf0, 0xff, 0x07, 0x06, 0x07, 0x02, 0xfc, 0xfb, 0x02, 0xf5, 0x02,
  0x01, 0xee, 0x02, 0xff, 0xfe, 0xff, 0xf9, 0xf9, 0xf3, 0x05, 0xfe, 0x01,
  0x0c, 0x09, 0x04, 0xff, 0x03, 0xfd, 0x05, 0xf5, 0x03, 0x07, 0xf9, 0xfd,
  0x07, 0x05, 0x06, 0x05, 0x08, 0xfa, 0x00, 0xf2, 0xe4, 0x03, 0xfc, 0xed,
  0xfd, 0x05, 0xff, 0xf5, 0xfc, 0xf0, 0x08, 0xf5, 0xfa, 0xfd, 0xfb, 0xf8,
  0xf3, 0xef, 0xfd, 0xf0, 0xff, 0xfb, 0xff, 0xfa, 0x09, 0xf5, 0xf3, 0x01,
  0xf2, 0xfc, 0x02, 0xfb, 0x00, 0xf8, 0xe9, 0x0c, 0x06, 0xf9, 0xf6, 0x01,
  0xfc, 0xff, 0x19, 0x00, 0x0c, 0xfc, 0x03, 0xfd, 0x00, 0x02, 0xfe, 0x00,
  0xf4, 0x0d, 0x0a, 0x08, 0x11, 0xfc, 0x0a, 0xfb, 0xfc, 0x07, 0x09, 0xfe,
  0xe9, 0x0c, 0x04, 0x0c, 0x02, 0xff, 0x00, 0xfe, 0x04, 0x0d, 0x05, 0x00,
  0xf4, 0x04, 0x24, 0x01, 0xf4, 0x04, 0x06, 0x0a, 0x02, 0x02, 0x03, 0xff,
  0xf6, 0xe0, 0x03, 0x01, 0xe6, 0x05, 0xfd, 0x0a, 0x09, 0xed, 0x05, 0xfe,
  0xe8, 0xd8, 0xf1, 0xff, 0x06, 0x0e, 0x00, 0x05, 0x0f, 0xe2, 0xfe, 0x07,
  0xeb, 0xda, 0xf6, 0x01, 0xfb, 0x08, 0xf4, 0x04, 0x0b, 0xe4, 0xf9, 0x04,
  0xf7, 0xeb, 0xe8, 0x0c, 0xfd, 0x01, 0x0f, 0xe7, 0xf3, 0x03, 0xee, 0xff,
  0x03, 0xfb, 0x06, 0x12, 0xf9, 0xfd, 0x08, 0xed, 0x07, 0x11, 0xfd, 0x0a,
  0x02, 0x0b, 0x0c, 0x0c, 0x04, 0x00, 0x07, 0xea, 0xe7, 0x0d, 0x01, 0xd5,
  0xf5, 0x11, 0x0c, 0x03, 0x0c, 0xf4, 0x0e, 0xfa, 0xfc, 0xfb, 0x09, 0xeb,
  0xe9, 0x0c, 0xf6, 0xf4, 0x02, 0xf4, 0xfc, 0xf5, 0xfa, 0xf6, 0xfe, 0xfb,
  0xf8, 0xf6, 0x08, 0xee, 0x04, 0x11, 0xf4, 0x0a, 0x01, 0xfd, 0xf5, 0xfc,
  0x00, 0x23, 0xf3, 0x1d, 0x0c, 0x22, 0x09, 0x07, 0xf8, 0x04, 0xfa, 0xfe,
  0x05, 0xfb, 0x08, 0x1a, 0xf7, 0xe8, 0x01, 0xec, 0xed, 0x13, 0x12, 0xf5,
  0x03, 0x09, 0xf5, 0xf6, 0x05, 0xe3, 0x06, 0x1d, 0xef, 0xf2, 0x10, 0xec,
  0xfa, 0xfb, 0xfe, 0xff, 0xf0, 0x09, 0x01, 0xf1, 0xed, 0x02, 0xf3, 0x05,
  0xf7, 0x00, 0xff, 0x07, 0xfd, 0x00, 0xfa, 0x07, 0xf1, 0x06, 0xff, 0xeb,
  0xf5, 0x0a, 0xf2, 0xfe, 0xf1, 0xf5, 0xff, 0x07, 0x05, 0xff, 0xff, 0x14,
  0xf8, 0x0a, 0xf9, 0xf6, 0x11, 0xf0, 0xfb, 0xfc, 0x03, 0x02, 0xfa, 0xfc,
  0xf5, 0x02, 0xf5, 0xf5, 0xfe, 0x02, 0xfe, 0xf7, 0xe7, 0xf6, 0xff, 0xf2,
  0x12, 0xf6, 0xf7, 0xfd, 0xf3, 0xed, 0xf4, 0xef, 0x08, 0xfd, 0xe4, 0x08,
  0x0a, 0x0e, 0xfd, 0x0f, 0xff, 0xc0, 0xf1, 0x03, 0xf2, 0x0a, 0x05, 0xef,
  0xe1, 0xe0, 0x03, 0x12, 0xf0, 0x14, 0xfc, 0x11, 0xfa, 0x06, 0x07, 0xf7,
  0x07, 0x09, 0x01, 0xf1, 0x04, 0x15, 0xf6, 0x0d, 0xff, 0xef, 0xf5, 0x02,
  0xfa, 0xe8, 0x08, 0xee, 0xfe, 0xfb, 0xf8, 0xfc, 0xff, 0xed, 0xe4, 0x00,
  0x02, 0x05, 0xfa, 0xfe, 0x06, 0xfb, 0x04, 0xff, 0xfb, 0xea, 0xf4, 0x00,
  0x06, 0xff, 0x01, 0x00, 0x05, 0x0a, 0x08, 0x0d, 0x02, 0x06, 0x03, 0xf7,
  0x0a, 0x0a, 0xfa, 0x01, 0x02, 0xfa, 0x01, 0x0a, 0xee, 0x01, 0x05, 0xf3,
  0x02, 0xfd, 0x02, 0xe7, 0xf9, 0xfa, 0xf8, 0xe6, 0xef, 0xf3, 0x01, 0xec,
  0xfa, 0xfb, 0x17, 0x01, 0xef, 0xff, 0xfd, 0x05, 0x05, 0x01, 0x05, 0x08,
  0xf5, 0xfa, 0xf7, 0xff, 0xf7, 0x06, 0xfa, 0xf9, 0xfe, 0xfc, 0x01, 0x0a,
  0xf9, 0xf8, 0xf1, 0xfd, 0xed, 0xef, 0x07, 0xfc, 0xe6, 0xee, 0xf4, 0x15,
  0xff, 0x0c, 0x03, 0x04, 0xf5, 0x0f, 0x13, 0x09, 0xf8, 0x04, 0xfd, 0xfa,
  0x0a, 0x0b, 0xfc, 0x03, 0xfe, 0xff, 0x06, 0x08, 0xff, 0x01, 0x02, 0xee,
  0x02, 0xf0, 0x00, 0x00, 0x02, 0xee, 0xf0, 0xfd, 0x06, 0x03, 0xf4, 0xf6,
  0xfb, 0xde, 0x03, 0xf5, 0xff, 0xf7, 0xe1, 0xfb, 0xf9, 0xfa, 0x00, 0xf9,
  0x02, 0x02, 0xf8, 0xe9, 0xfe, 0x08, 0x01, 0xf2, 0xfe, 0xef, 0xf3, 0x00,
  0xfa, 0xe3, 0x03, 0xd1, 0x00, 0x06, 0xf3, 0x0f, 0x02, 0xcf, 0xd1, 0x01,
  0xff, 0x04, 0xfc, 0x05, 0x03, 0x04, 0xf8, 0x06, 0xfc, 0xff, 0xf1, 0xfc,
  0x00, 0x06, 0x08, 0x07, 0x03, 0x0f, 0x03, 0x08, 0xfd, 0x0a, 0x09, 0x00,
  0x0e, 0x02, 0xdf, 0x0b, 0xf5, 0x11, 0x07, 0x12, 0x07, 0xfb, 0xfb, 0xed,
  0x03, 0xf5, 0x0a, 0x05, 0x0b, 0xf2, 0xfa, 0xf3, 0xee, 0x12, 0x05, 0x00,
  0xfa, 0xfd, 0x0f, 0x05, 0xff, 0x00, 0x04, 0xf5, 0xe4, 0x0f, 0xfe, 0xf5,
  0xfb, 0xea, 0xfe, 0xfe, 0x0e, 0x0e, 0xf0, 0x01, 0xea, 0x00, 0xf7, 0xf8,
  0xfe, 0x07, 0xf5, 0xfe, 0xe7, 0xfa, 0x02, 0xf8, 0xdb, 0xfe, 0x01, 0xf7,
  0x0b, 0x18, 0x03, 0x08, 0x06, 0x08, 0x11, 0x03, 0xf7, 0x02, 0xfc, 0xf5,
  0x0f, 0x16, 0x01, 0xf7, 0x02, 0xfa, 0x00, 0x0b, 0x01, 0xfa, 0xff, 0x00,
  0x02, 0xf6, 0x05, 0x04, 0xf8, 0xfb, 0xe1, 0x08, 0x0b, 0xff, 0xf5, 0xfe,
  0x01, 0xd6, 0x07, 0xf4, 0x00, 0xfe, 0xe5, 0x0b, 0x00, 0xf6, 0xfa, 0xfc,
  0xfe, 0xe8, 0xfa, 0xdc, 0xfe, 0x07, 0xf1, 0xfe, 0xfc, 0xd1, 0xf1, 0x02,
  0xef, 0xec, 0xfb, 0xca, 0x02, 0xf1, 0xf1, 0x0b, 0x01, 0xbd, 0xb9, 0x02,
  0x02, 0xfc, 0xdd, 0xff, 0x03, 0xfe, 0x00, 0xf2, 0x03, 0xf7, 0x0d, 0x03,
  0xf7, 0x07, 0x1b, 0x04, 0xff, 0x00, 0x05, 0xfb, 0x02, 0x02, 0x0b, 0xff,
  0xf6, 0xfa, 0xf1, 0xfa, 0x07, 0x05, 0xfa, 0x18, 0x26, 0xfc, 0xff, 0x0b,
  0x00, 0x08, 0x16, 0x03, 0x08, 0x16, 0xfb, 0xfc, 0xfc, 0x00, 0x0a, 0xe9,
  0xf8, 0x0c, 0x0f, 0x04, 0x0e, 0xf8, 0x04, 0xf9, 0xd2, 0x09, 0x04, 0xf8,
  0xfd, 0xf5, 0x0b, 0x03, 0xf7, 0x04, 0xf7, 0xfc, 0xd3, 0x02, 0x04, 0x08,
  0xfb, 0xfa, 0xfe, 0x03, 0xef, 0x02, 0xf8, 0xf6, 0xe9, 0x08, 0x05, 0x0b,
  0x07, 0x19, 0x08, 0xfd, 0x0a, 0x13, 0xfa, 0x0b, 0x09, 0xfa, 0xf7, 0xf3,
  0x00, 0x0e, 0xfc, 0x00, 0xf9, 0xfb, 0x0d, 0x02, 0x04, 0xfc, 0xf9, 0xf4,
  0x08, 0xe9, 0x05, 0x03, 0xf0, 0xfa, 0xf1, 0x09, 0x0c, 0x04, 0xfd, 0x07,
  0x0a, 0xdf, 0x06, 0xf1, 0x0a, 0xf7, 0xeb, 0xfb, 0x03, 0xf6, 0xea, 0x06,
  0xf7, 0xd9, 0xec, 0xdb, 0x01, 0xf5, 0xdf, 0xe7, 0x02, 0xe8, 0xe6, 0x01,
  0x01, 0xf6, 0xf1, 0xea, 0xfc, 0xe2, 0x05, 0xd5, 0x01, 0xdd, 0xf2, 0xff,
  0x04, 0x00, 0x02, 0xf0, 0x06, 0xf6, 0x01, 0xfe, 0x04, 0xf1, 0xf7, 0x02,
  0x07, 0x03, 0x1e, 0x01, 0xfe, 0xf5, 0x0e, 0xfb, 0xff, 0xfe, 0x1a, 0x02,
  0xf3, 0x01, 0x06, 0xf8, 0xf7, 0x03, 0xfc, 0x0d, 0x15, 0xf9, 0x16, 0x0b,
  0x00, 0xff, 0xf7, 0xed, 0x09, 0x09, 0xfd, 0xf8, 0x07, 0xef, 0x0e, 0xce,
  0xfd, 0x02, 0xf8, 0xfd, 0x05, 0xf6, 0xfa, 0x0a, 0xe6, 0xfa, 0x03, 0xef,
  0xfa, 0xeb, 0xfa, 0x0a, 0xf6, 0x0b, 0xf4, 0xf8, 0xe2, 0x00, 0xf9, 0x02,
  0xf5, 0xef, 0x06, 0xff, 0x00, 0x07, 0xf7, 0xf6, 0xf9, 0xfe, 0x01, 0x09,
  0xff, 0x03, 0x0c, 0x03, 0x12, 0x03, 0xf5, 0x0d, 0x1a, 0xfe, 0xf1, 0xf0,
  0x0b, 0x10, 0x01, 0xfd, 0x10, 0xfc, 0x03, 0x08, 0x1b, 0xfa, 0xf1, 0x05,
  0x08, 0xfc, 0x03, 0x08, 0xfa, 0xf9, 0xf4, 0x07, 0x0d, 0x00, 0x03, 0xfa,
  0x05, 0xe0, 0x05, 0xe7, 0x08, 0x09, 0x02, 0xe3, 0x06, 0xed, 0xdd, 0x09,
  0xff, 0xc9, 0xfd, 0x07, 0xff, 0xd6, 0xe9, 0xf0, 0x03, 0x04, 0x02, 0x06,
  0x0e, 0x0a, 0xf3, 0x00, 0x00, 0xf6, 0x0c, 0xef, 0xfe, 0xe3, 0x0a, 0x01,
  0xf0, 0x02, 0x03, 0xf7, 0x03, 0xfe, 0xf7, 0xf2, 0x01, 0x01, 0xf8, 0xf4,
  0xfd, 0xff, 0x0b, 0xf9, 0x01, 0xfa, 0xfd, 0xfb, 0xf5, 0x00, 0x0b, 0xee,
  0xfb, 0x04, 0x09, 0x00, 0xf8, 0x0c, 0x06, 0x16, 0x0d, 0xfe, 0x0f, 0xfe,
  0x03, 0x07, 0xf5, 0xfa, 0x08, 0x14, 0x04, 0x0a, 0xf7, 0xf3, 0x12, 0xef,
  0xf9, 0x00, 0xfb, 0xfd, 0xf2, 0x09, 0xfc, 0x07, 0xdc, 0x02, 0x06, 0xf9,
  0xfb, 0xe9, 0xfe, 0x05, 0xef, 0x07, 0xfe, 0x03, 0xd6, 0xfd, 0x02, 0x08,
  0x01, 0xf8, 0x09, 0x02, 0xf8, 0x01, 0xfb, 0xfe, 0x02, 0xfe, 0xfc, 0x01,
  0x07, 0xf9, 0x09, 0x03, 0x08, 0x00, 0x01, 0x07, 0x18, 0x03, 0xed, 0x05,
  0x00, 0x09, 0xfb, 0x01, 0x1f, 0xf3, 0xfe, 0xf1, 0x1e, 0xf7, 0xe6, 0x11,
  0xf9, 0x05, 0x01, 0xf9, 0x08, 0xf3, 0xf5, 0x00, 0x0c, 0xfa, 0xf5, 0x06,
  0xef, 0xf0, 0xf9, 0xf4, 0x0b, 0xf6, 0xf3, 0xe5, 0x00, 0xf8, 0xf4, 0xf7,
  0xfb, 0xf6, 0xfc, 0x0b, 0xff, 0xea, 0xfa, 0xfd, 0x01, 0x12, 0x08, 0xf9,
  0xfc, 0x0a, 0xfa, 0x08, 0x02, 0xf9, 0x01, 0x07, 0xfb, 0xf7, 0x12, 0xfb,
  0xf5, 0xf8, 0x07, 0xfe, 0xf4, 0xf7, 0xf5, 0xe6, 0xfd, 0xf8, 0xea, 0xf4,
  0xfc, 0xff, 0x08, 0xf3, 0xfc, 0x01, 0xfe, 0x0d, 0xf1, 0xeb, 0x02, 0xee,
  0xff, 0x01, 0xfc, 0xfc, 0x03, 0x04, 0x00, 0x1b, 0x15, 0x01, 0x0c, 0xff,
  0x05, 0x02, 0xf7, 0xfe, 0xff, 0x0c, 0xfe, 0x03, 0xf4, 0xf5, 0x0a, 0xee,
  0x03, 0x02, 0xf1, 0x03, 0xf7, 0x05, 0x03, 0xf2, 0xe8, 0xfc, 0x02, 0xe7,
  0x04, 0xfc, 0xfe, 0xff, 0xf4, 0x00, 0xfc, 0xfb, 0xd6, 0x03, 0x02, 0xfe,
  0x04, 0xf7, 0x00, 0xf9, 0xf4, 0xf9, 0x00, 0xfc, 0x09, 0xff, 0xf9, 0xf5,
  0x0d, 0x02, 0x08, 0xff, 0xff, 0xf7, 0x01, 0x07, 0x12, 0x01, 0xf2, 0x05,
  0x01, 0x07, 0xfe, 0xff, 0x07, 0x03, 0x01, 0x0a, 0x0d, 0xf7, 0xf9, 0x16,
  0xff, 0xf4, 0x00, 0xfc, 0x03, 0xfe, 0xed, 0x01, 0xff, 0xfc, 0xf3, 0xf5,
  0xfb, 0x04, 0xfa, 0xfe, 0x05, 0xf6, 0xed, 0x00, 0x01, 0x00, 0xf8, 0xfc,
  0xfa, 0xe6, 0xf6, 0x09, 0xf6, 0xe9, 0x05, 0xf1, 0x03, 0x06, 0xfa, 0xfa,
  0x01, 0xfb, 0xfa, 0xff, 0xf1, 0xf0, 0xff, 0x07, 0xfd, 0xfe, 0xfe, 0xfe,
  0xfb, 0xf5, 0x08, 0xf7, 0xfa, 0x00, 0xed, 0xff, 0x00, 0xfe, 0x00, 0xfa,
  0x01, 0x03, 0x0b, 0xf5, 0xfc, 0x0b, 0x00, 0x12, 0xfa, 0xee, 0x04, 0xf9,
  0x0a, 0x02, 0xf7, 0xfd, 0x04, 0x02, 0x02, 0x0a, 0x19, 0xff, 0x0e, 0xfb,
  0x02, 0x02, 0xed, 0x07, 0xfd, 0x0b, 0x04, 0xf9, 0x13, 0x05, 0x08, 0xff,
  0x0d, 0x04, 0xed, 0xf8, 0xfb, 0x10, 0x00, 0x04, 0x01, 0xfa, 0x00, 0xef,
  0xf3, 0xf8, 0x06, 0x08, 0xec, 0xf6, 0xfb, 0x0c, 0xf5, 0x05, 0x09, 0x05,
  0x06, 0xfb, 0xfe, 0xf9, 0x05, 0xf7, 0xff, 0x05, 0xea, 0x00, 0x01, 0x02,
  0x04, 0xf3, 0xfd, 0x02, 0x0e, 0x04, 0xfa, 0x07, 0x05, 0x04, 0xf2, 0x00,
  0x09, 0xfb, 0x03, 0x00, 0xfc, 0xfa, 0xfc, 0x09, 0x0b, 0xfb, 0xfc, 0x1d,
  0x06, 0xf4, 0x05, 0xf9, 0x01, 0xfe, 0xfb, 0x05, 0x01, 0xfe, 0xf5, 0xf8,
  0xff, 0xfe, 0xf8, 0x06, 0xf7, 0xf4, 0xfa, 0xe6, 0x06, 0x03, 0xf1, 0xf4,
  0x06, 0xe4, 0xf3, 0xf8, 0xfe, 0xe9, 0xe1, 0x02, 0xfb, 0xf5, 0xfd, 0xf4,
  0x09, 0xf9, 0xe1, 0xfc, 0xf9, 0xfe, 0xff, 0x13, 0x01, 0xdb, 0x05, 0x06,
  0x01, 0xfe, 0x0a, 0xf7, 0xfb, 0x03, 0x04, 0xf8, 0x00, 0xfb, 0x06, 0x0f,
  0xfa, 0x07, 0x09, 0xf8, 0x0a, 0xfb, 0x02, 0x05, 0xfe, 0xff, 0x08, 0x03,
  0x02, 0x09, 0x01, 0xfe, 0x0b, 0xfa, 0x07, 0x07, 0x05, 0x02, 0x06, 0x09,
  0xff, 0x01, 0xfb, 0x03, 0xfa, 0x14, 0xfc, 0xfe, 0x0b, 0x0a, 0x0c, 0xf0,
  0x00, 0x03, 0xf2, 0x06, 0x08, 0x09, 0x00, 0xfa, 0xe4, 0x03, 0x02, 0xfc,
  0x01, 0xfc, 0xfc, 0x07, 0xf4, 0xfe, 0x04, 0x08, 0xfe, 0xff, 0x04, 0xf9,
  0x02, 0xf7, 0x01, 0x01, 0x01, 0x01, 0xf7, 0xfc, 0xff, 0x06, 0xfd, 0x0a,
  0xff, 0x02, 0xf6, 0x03, 0x00, 0xfe, 0xf8, 0xf6, 0xf6, 0x03, 0xfa, 0x02,
  0x05, 0xfc, 0xfe, 0x03, 0xf6, 0xf8, 0x08, 0x06, 0xfa, 0x05, 0x01, 0xfb,
  0x01, 0xfc, 0xff, 0x07, 0xfc, 0xf7, 0xfd, 0x08, 0x01, 0x02, 0xf9, 0xfa,
  0x14, 0x10, 0x00, 0x06, 0x0c, 0x02, 0x13, 0x0e, 0x09, 0x07, 0xf8, 0x03,
  0x08, 0xda, 0x03, 0xec, 0x02, 0x02, 0xe7, 0x16, 0x05, 0xe7, 0xf9, 0x03,
  0x09, 0x00, 0xdb, 0xf0, 0x00, 0xfd, 0x02, 0xff, 0xfe, 0xdc, 0x12, 0x03,
  0x01, 0x0f, 0x0d, 0x03, 0x08, 0x09, 0x07, 0x18, 0xfd, 0xf5, 0x0d, 0xff,
  0x03, 0x04, 0xf8, 0xfb, 0xfd, 0x05, 0xfe, 0x0f, 0xf5, 0xe9, 0xfa, 0xfa,
  0x04, 0x01, 0x04, 0xff, 0xfc, 0xfd, 0xfe, 0xff, 0xfc, 0x06, 0x01, 0xf9,
  0xff, 0x07, 0xfd, 0xfe, 0x0b, 0x0c, 0x05, 0xe3, 0xec, 0x05, 0x03, 0xe7,
  0x01, 0x09, 0xff, 0x01, 0xfb, 0xfa, 0xfd, 0xf4, 0xdb, 0x0c, 0x05, 0xfa,
  0x08, 0xfe, 0x06, 0x08, 0xf0, 0xf9, 0xfc, 0x0a, 0xe3, 0x09, 0x02, 0xf3,
  0x13, 0x02, 0xfc, 0x04, 0xf3, 0x08, 0x05, 0xf7, 0xe0, 0x08, 0xfc, 0x0d,
  0x00, 0xfd, 0xfa, 0x04, 0xff, 0xfb, 0x01, 0x09, 0xf3, 0x0a, 0xff, 0xfd,
  0x03, 0xff, 0x04, 0x04, 0xfc, 0xfd, 0xf5, 0x18, 0xfd, 0x09, 0x01, 0xf8,
  0x12, 0xfc, 0x01, 0x00, 0xfc, 0x02, 0x00, 0x10, 0xfc, 0x00, 0xf9, 0xff,
  0x18, 0x0b, 0x05, 0x00, 0x10, 0x03, 0xfc, 0x0a, 0x0a, 0x03, 0xf4, 0x02,
  0x05, 0xe8, 0x04, 0xf7, 0x04, 0xfb, 0xf7, 0xfb, 0x02, 0xfc, 0xef, 0x05,
  0x04, 0xff, 0xe8, 0xf4, 0xf9, 0xff, 0x01, 0x0c, 0xfe, 0xeb, 0xfe, 0x01,
  0x07, 0x03, 0xf5, 0xfb, 0x00, 0x01, 0x08, 0x10, 0x00, 0xe7, 0x04, 0x01,
  0xf6, 0x05, 0xfb, 0xf7, 0x00, 0x04, 0xff, 0x17, 0x00, 0xf5, 0x06, 0xfb,
  0xfd, 0x0c, 0x02, 0x05, 0x04, 0x0f, 0x04, 0x06, 0xfd, 0xfd, 0xff, 0xf6,
  0x05, 0x06, 0xf8, 0xfe, 0x03, 0xff, 0xfe, 0xed, 0xe3, 0x0b, 0x06, 0xec,
  0x04, 0x01, 0xfc, 0x02, 0xfc, 0xea, 0xfd, 0xe7, 0xe0, 0x02, 0x06, 0xf2,
  0x07, 0x0a, 0x04, 0x0b, 0x04, 0xe9, 0x09, 0xf6, 0xd0, 0x0a, 0x04, 0xff,
  0xf6, 0x0b, 0x00, 0x02, 0x0e, 0x02, 0xfe, 0xf0, 0xf0, 0x0b, 0xff, 0x02,
  0x04, 0x06, 0xfb, 0x07, 0x03, 0xfd, 0xfe, 0xee, 0xf8, 0x08, 0xfd, 0xf0,
  0xfb, 0xf6, 0x05, 0x02, 0xf7, 0xf6, 0x02, 0x00, 0x12, 0x08, 0xfe, 0xfa,
  0x07, 0xef, 0xfd, 0x02, 0xed, 0xf8, 0x05, 0x0e, 0x07, 0x03, 0xf9, 0x05,
  0x0c, 0xd8, 0x02, 0xfa, 0x06, 0x01, 0xf8, 0x11, 0x0e, 0xf3, 0xf1, 0x05,
  0x0f, 0xfb, 0x08, 0x01, 0x03, 0x00, 0x05, 0x11, 0x07, 0x03, 0x05, 0x05,
  0xfc, 0xf6, 0xe2, 0xff, 0x00, 0xfc, 0xfb, 0x05, 0xfe, 0x02, 0x00, 0xfe,
  0x01, 0x05, 0xe7, 0xfb, 0xff, 0x00, 0x03, 0xfd, 0xfc, 0xeb, 0x01, 0x00,
  0xff, 0xfc, 0xf7, 0xfc, 0xfc, 0xf5, 0xfc, 0xfa, 0x04, 0xf5, 0x14, 0x02,
  0xf2, 0x03, 0xe7, 0x02, 0x0a, 0x0b, 0x05, 0xeb, 0x01, 0xfb, 0x09, 0xf1,
  0x02, 0x02, 0x03, 0x01, 0x00, 0xf6, 0x02, 0xf5, 0xcc, 0x0d, 0x0f, 0xe9,
  0x03, 0x00, 0xfc, 0x04, 0x00, 0xf9, 0xfe, 0xe7, 0xd6, 0x06, 0x07, 0xfe,
  0x06, 0x07, 0x05, 0x03, 0xf6, 0xe3, 0x0f, 0xed, 0xe9, 0xff, 0x00, 0x0a,
  0x02, 0xfc, 0xfc, 0x08, 0xf4, 0x0e, 0x03, 0xf4, 0xf5, 0x10, 0x02, 0x01,
  0xfe, 0x08, 0xfa, 0x08, 0x03, 0xfc, 0x02, 0xef, 0xfc, 0x09, 0xfc, 0xfe,
  0xff, 0x02, 0x02, 0x0a, 0xf6, 0xf7, 0x01, 0x02, 0x10, 0x09, 0xfa, 0x00,
  0x16, 0xe9, 0x04, 0x0c, 0xf4, 0xea, 0x00, 0x03, 0x0c, 0x06, 0xf9, 0x0d,
  0x18, 0xde, 0x0c, 0x00, 0x0e, 0x02, 0x00, 0x02, 0x0d, 0xf1, 0xdf, 0x09,
  0x1b, 0xe9, 0x03, 0x0a, 0x06, 0xf3, 0x0a, 0x04, 0x07, 0x0f, 0x04, 0x09,
  0x06, 0xfd, 0xe7, 0x04, 0xfe, 0x00, 0x0a, 0xfc, 0xff, 0x02, 0x01, 0x01,
  0xf4, 0xfb, 0xd4, 0x03, 0x02, 0xff, 0x05, 0x06, 0xf6, 0xf1, 0x03, 0xff,
  0xfb, 0x00, 0xcc, 0xf2, 0xfa, 0x03, 0x0d, 0xf6, 0xfb, 0xe7, 0x06, 0x02,
  0xe5, 0x02, 0xda, 0x03, 0xf9, 0xff, 0x06, 0xf4, 0xf3, 0x04, 0x06, 0xf7,
  0xf9, 0x00, 0x10, 0xfe, 0x0a, 0xf9, 0x00, 0xf4, 0xbf, 0x06, 0xfb, 0xe2,
  0x07, 0x07, 0x0c, 0x03, 0xed, 0x08, 0x0f, 0x03, 0xc9, 0x07, 0x0a, 0x07,
  0x00, 0xfb, 0xf3, 0x09, 0xe1, 0xf2, 0x01, 0x02, 0xc9, 0x08, 0xfd, 0x01,
  0x13, 0xfa, 0xf5, 0x03, 0xef, 0x03, 0xfd, 0xfb, 0xdc, 0x19, 0xfc, 0x0e,
  0x0f, 0x0e, 0x04, 0x0d, 0xfc, 0xfb, 0x04, 0xf5, 0x01, 0x13, 0xff, 0x0d,
  0x04, 0xfd, 0xfe, 0x0a, 0xe9, 0xfc, 0x09, 0xf8, 0x0e, 0x05, 0xf8, 0xfd,
  0xff, 0xc1, 0xff, 0x0f, 0xf3, 0xfe, 0xd5, 0x27, 0x04, 0x06, 0xf2, 0x15,
  0xf9, 0xe7, 0x07, 0xff, 0x02, 0x1d, 0xf5, 0x1b, 0x06, 0xf4, 0xe9, 0x1b,
  0x1a, 0xe4, 0x04, 0x11, 0xfd, 0x08, 0x0c, 0x1f, 0xfe, 0x13, 0x03, 0xff,
  0xc4, 0xce, 0xf7, 0x00, 0xfe, 0xe7, 0xe3, 0xf0, 0xfd, 0x01, 0xf4, 0xfc,
  0xfa, 0xf6, 0xf7, 0xfa, 0xff, 0xff, 0xfb, 0xe6, 0xfb, 0x06, 0xf2, 0xfe,
  0xfe, 0xee, 0xd4, 0xfb, 0x02, 0x18, 0xfb, 0xfb, 0xfe, 0xfc, 0xf6, 0x01,
  0xfd, 0xfa, 0xfe, 0xfc, 0xff, 0xd2, 0x05, 0xf9, 0xfc, 0xf8, 0x05, 0x06,
  0xf5, 0x07, 0x02, 0xf9, 0x05, 0x0d, 0x07, 0x09, 0xf0, 0xf8, 0x01, 0x13,
  0xf5, 0x04, 0xf7, 0xf6, 0x04, 0x05, 0x0b, 0xfd, 0xdd, 0xf8, 0xff, 0x07,
  0xfa, 0xf6, 0x01, 0x0a, 0xf6, 0x04, 0x0a, 0xfb, 0xd1, 0x09, 0x05, 0xe0,
  0xfc, 0xd7, 0x0a, 0x07, 0xca, 0x15, 0xf9, 0xe6, 0xed, 0x02, 0x0d, 0xf5,
  0x0d, 0xdb, 0x09, 0x09, 0xe8, 0x09, 0x03, 0xfd, 0x06, 0x05, 0x07, 0x0a,
  0x04, 0xe5, 0x04, 0xf6, 0x0e, 0xdf, 0xf9, 0xf7, 0x0b, 0xfd, 0xef, 0x03,
  0xff, 0xe2, 0xfe, 0xf9, 0x07, 0xe3, 0xea, 0x0e, 0x01, 0xf2, 0x06, 0xfa,
  0x01, 0xeb, 0xf8, 0xeb, 0xfc, 0xfd, 0xda, 0xe9, 0xf7, 0xe8, 0xfc, 0xfe,
  0xda, 0x01, 0xc2, 0xf6, 0xfb, 0xe1, 0x0d, 0xec, 0xf9, 0xe2, 0xde, 0xfd,
  0xfd, 0xcb, 0xf6, 0xeb, 0xfe, 0xf7, 0xf6, 0x0c, 0xf9, 0xee, 0xe9, 0xfe,
  0x05, 0x02, 0xee, 0x06, 0x00, 0x06, 0x07, 0x1e, 0xfb, 0xfd, 0x02, 0x03,
  0x02, 0xfb, 0xe4, 0xf1, 0xfd, 0x01, 0x01, 0x01, 0x07, 0xec, 0xfc, 0x0c,
  0x0a, 0x05, 0xf4, 0x02, 0x0f, 0xfb, 0x06, 0x07, 0x06, 0xf2, 0x01, 0x0d,
  0x09, 0x0d, 0xf7, 0x08, 0x0b, 0xfb, 0x0b, 0xf3, 0xe5, 0xfe, 0x02, 0xfa,
  0x02, 0x07, 0x02, 0xfb, 0x19, 0xf9, 0x12, 0xf9, 0xd9, 0x03, 0xfb, 0xfa,
  0x12, 0x1c, 0x1f, 0x09, 0x11, 0xf9, 0x12, 0x13, 0xc8, 0x06, 0x15, 0xf4,
  0xff, 0x15, 0x2c, 0x01, 0x03, 0x16, 0x0d, 0xf6, 0xef, 0x12, 0x17, 0xf8,
  0x01, 0xf5, 0x0f, 0x02, 0x12, 0xfc, 0xf8, 0x0f, 0xf9, 0x02, 0x05, 0x08,
  0xf6, 0x07, 0x05, 0xff, 0x0e, 0xf3, 0x08, 0x16, 0xfa, 0xff, 0x00, 0x03,
  0xee, 0xee, 0x04, 0xf8, 0x03, 0x0f, 0xfd, 0x0a, 0x06, 0xf8, 0x00, 0x0d,
  0xff, 0xec, 0xfc, 0xe8, 0x08, 0x05, 0xf1, 0xf2, 0x02, 0xed, 0xf7, 0xfd,
  0xf5, 0xff, 0xe7, 0xe1, 0xff, 0xe1, 0xe0, 0xf6, 0xfb, 0xc8, 0xe9, 0xfe,
  0x01, 0xfc, 0xf4, 0xf0, 0xfd, 0xfa, 0xff, 0xea, 0xfe, 0xd6, 0xd4, 0xfd,
  0x04, 0x08, 0xe6, 0xfe, 0x03, 0xec, 0x08, 0xfd, 0xf8, 0xf4, 0x09, 0xfe,
  0x00, 0x06, 0x03, 0xfc, 0x04, 0xf8, 0x07, 0x13, 0x11, 0xf9, 0x0e, 0x08,
  0x03, 0x0a, 0xed, 0xf9, 0x0f, 0xfa, 0x06, 0x12, 0x08, 0xf2, 0x06, 0x09,
  0x0f, 0x0e, 0xe4, 0xff, 0x0e, 0x00, 0x0a, 0x1a, 0xff, 0xf3, 0xff, 0x06,
  0x19, 0x03, 0x03, 0xff, 0xfe, 0xe0, 0xfb, 0xf7, 0x0c, 0xfb, 0x01, 0x02,
  0x0d, 0x12, 0x12, 0x05, 0xf6, 0xdf, 0xfa, 0x0e, 0xe1, 0x04, 0x04, 0xee,
  0x00, 0x0c, 0x1c, 0xf8, 0xe8, 0xec, 0xec, 0x11, 0xfa, 0xfa, 0x0e, 0xf4,
  0xff, 0xe6, 0x11, 0xf6, 0xf6, 0x01, 0xec, 0x1c, 0x09, 0xfc, 0x12, 0x08,
  0xff, 0xf0, 0x06, 0xff, 0x02, 0xfc, 0xf2, 0x14, 0x07, 0xfe, 0xfe, 0x08,
  0x06, 0xfc, 0x02, 0xfa, 0x14, 0xfd, 0x03, 0x12, 0x0b, 0xfe, 0xf8, 0x11,
  0x05, 0x01, 0x01, 0xfd, 0x08, 0xf5, 0xf8, 0xf9, 0x05, 0xfe, 0xfc, 0xfe,
  0xf3, 0xdf, 0xfa, 0xcc, 0xfd, 0xe5, 0xdb, 0xd8, 0xfd, 0xdd, 0xdc, 0xfa,
  0xfe, 0xff, 0xe6, 0xf7, 0x02, 0x04, 0x00, 0xfd, 0xfc, 0xf0, 0xf1, 0xfa,
  0x07, 0x0b, 0xdc, 0x02, 0xfc, 0xfd, 0x06, 0xed, 0xfb, 0xe3, 0x08, 0xf3,
  0x06, 0x05, 0x13, 0xfe, 0x05, 0xfb, 0x05, 0xe9, 0x05, 0xff, 0x08, 0x01,
  0x06, 0x02, 0xf4, 0xf6, 0x00, 0xfb, 0x02, 0x06, 0xec, 0xe6, 0xff, 0x00,
  0x0a, 0xff, 0xdf, 0x0a, 0x04, 0xfe, 0x01, 0x1e, 0x0a, 0x03, 0x07, 0x13,
  0x0c, 0xf2, 0xfc, 0x07, 0xf2, 0xf1, 0xf0, 0xfc, 0x13, 0xf3, 0xf6, 0x05,
  0x03, 0x06, 0x04, 0x09, 0x01, 0xe7, 0xef, 0xf5, 0xff, 0x08, 0x00, 0xf2,
  0xf7, 0x03, 0x0c, 0xf8, 0xf3, 0xe5, 0xeb, 0x07, 0xfe, 0x01, 0xff, 0x01,
  0xfb, 0xf5, 0xfe, 0x04, 0xf7, 0xfb, 0xfa, 0x1a, 0x09, 0xfd, 0x08, 0x05,
  0xfa, 0xec, 0xff, 0xf8, 0x03, 0x12, 0xee, 0x01, 0xfb, 0x00, 0xff, 0x04,
  0xff, 0x01, 0xff, 0x06, 0xff, 0xf9, 0x08, 0x07, 0x09, 0x01, 0xfc, 0x03,
  0x11, 0xf6, 0xfe, 0x05, 0x0c, 0xf3, 0xf6, 0x02, 0x01, 0x05, 0x01, 0x03,
  0xee, 0xe0, 0x04, 0xee, 0xfc, 0xf4, 0xc0, 0xea, 0xfa, 0xe9, 0xef, 0xfc,
  0xfe, 0x03, 0xde, 0x03, 0xfe, 0xff, 0x05, 0xed, 0xfc, 0xee, 0xf7, 0xfd,
  0xfc, 0x01, 0xe1, 0x05, 0xfa, 0x01, 0x03, 0xcd, 0x04, 0xff, 0x03, 0xed,
  0x05, 0x08, 0x01, 0x05, 0x06, 0xf6, 0x03, 0xe5, 0xfa, 0x08, 0x01, 0xf1,
  0x07, 0xff, 0xfc, 0xfc, 0x03, 0x04, 0x05, 0xf6, 0xe8, 0xfd, 0xf4, 0xf9,
  0x05, 0x0a, 0x0f, 0x0c, 0xf9, 0xfe, 0xfa, 0xfc, 0x03, 0x10, 0x0b, 0x17,
  0xf6, 0x07, 0xf5, 0x0b, 0xf4, 0xf4, 0xff, 0xe7, 0xf5, 0x04, 0xf4, 0xf9,
  0xff, 0x0f, 0x08, 0x02, 0xfc, 0xe8, 0xfe, 0xf8, 0xfd, 0x0a, 0xfa, 0xef,
  0x03, 0x01, 0x07, 0xfc, 0xe6, 0xeb, 0xf6, 0xf7, 0xee, 0x00, 0x02, 0xf2,
  0xfc, 0xf8, 0xf7, 0xf6, 0xf9, 0x05, 0x0a, 0x10, 0xf6, 0xf4, 0xfa, 0x0b,
  0xfa, 0xfb, 0x04, 0xff, 0xfb, 0xfa, 0x04, 0xfd, 0xfb, 0xfd, 0xfd, 0x11,
  0xfa, 0x01, 0xfe, 0x01, 0x09, 0xfc, 0x0d, 0xf2, 0x09, 0x00, 0xf6, 0xf8,
  0xf7, 0xfa, 0x00, 0x08, 0x03, 0xfa, 0xef, 0xe8, 0xff, 0x08, 0x00, 0xf8,
  0xe6, 0xc6, 0xff, 0xef, 0xfe, 0xee, 0xd7, 0xe3, 0xfc, 0xff, 0xed, 0xfa,
  0xfd, 0xfe, 0xd6, 0x07, 0x00, 0x03, 0xff, 0xeb, 0xfa, 0xfa, 0xfb, 0xfc,
  0x02, 0x06, 0x01, 0x0c, 0x01, 0x02, 0x0b, 0xcb, 0x01, 0x10, 0x0a, 0x01,
  0xff, 0x04, 0xfe, 0x08, 0x03, 0xf0, 0x03, 0xf0, 0xe9, 0x08, 0x09, 0xff,
  0xfa, 0x02, 0x06, 0x06, 0x07, 0x08, 0x06, 0xfe, 0xd4, 0x0b, 0x02, 0x01,
  0xf4, 0xf9, 0x0d, 0xff, 0xf6, 0x04, 0xf4, 0xec, 0xf0, 0x01, 0xf3, 0xf2,
  0xfa, 0xfa, 0x01, 0x02, 0xef, 0xee, 0xf8, 0xef, 0xf8, 0x03, 0xff, 0xf8,
  0xf6, 0x15, 0x11, 0xfd, 0x0e, 0xf4, 0x04, 0xe8, 0xf1, 0x14, 0xfa, 0xf7,
  0x00, 0x09, 0x0a, 0xfc, 0xe7, 0xfb, 0x03, 0xf5, 0xd5, 0xfc, 0x03, 0xfa,
  0xf9, 0xf9, 0xf8, 0xfd, 0xfc, 0x01, 0x09, 0xfe, 0x04, 0xf9, 0xf8, 0xfe,
  0xff, 0x02, 0x05, 0x06, 0xfd, 0xf5, 0x05, 0xfb, 0xe8, 0x04, 0xf4, 0x0c,
  0x0b, 0xfd, 0x00, 0x04, 0x15, 0xfb, 0xfb, 0xf1, 0x06, 0x03, 0xfc, 0xff,
  0x03, 0xfd, 0x03, 0x02, 0x03, 0xf8, 0x03, 0xdf, 0xff, 0x05, 0x00, 0x05,
  0xdc, 0xc7, 0x00, 0x06, 0xf9, 0x02, 0xd8, 0xf4, 0x00, 0x09, 0x02, 0xf8,
  0xf9, 0xfd, 0xd5, 0xf7, 0xff, 0xf6, 0x06, 0xe9, 0xfd, 0x03, 0xf6, 0xfe,
  0xfa, 0x0a, 0x00, 0x05, 0x05, 0xf9, 0x07, 0xf8, 0xfc, 0x15, 0x0a, 0xff,
  0xfc, 0x02, 0xfc, 0x04, 0xfb, 0xfd, 0xff, 0xf8, 0xee, 0x05, 0x02, 0xfa,
  0xfa, 0x01, 0x0b, 0xfe, 0xf8, 0xfb, 0x00, 0x07, 0xbd, 0x07, 0x08, 0xf0,
  0xfb, 0xfa, 0x00, 0xff, 0x00, 0x09, 0xfc, 0xf5, 0xf8, 0xfb, 0xff, 0x12,
  0xfb, 0xe9, 0x03, 0xf6, 0xfc, 0xf5, 0xf9, 0xf4, 0xea, 0x03, 0xf7, 0xf6,
  0xf9, 0x15, 0x02, 0x07, 0x00, 0xea, 0x08, 0xdf, 0xe0, 0x1c, 0xff, 0xf7,
  0xfa, 0x05, 0x05, 0xfb, 0xe4, 0xeb, 0xf9, 0x00, 0xdf, 0xf8, 0xfd, 0xfc,
  0xfd, 0xf3, 0xf4, 0xfe, 0xf7, 0xfd, 0x00, 0x0b, 0xe0, 0x00, 0xfb, 0x01,
  0x09, 0x05, 0xfb, 0x00, 0xfc, 0xfb, 0x06, 0xfc, 0xd3, 0x02, 0xf5, 0xf4,
  0x00, 0xfa, 0x00, 0x03, 0x01, 0xfb, 0xfe, 0xfb, 0x05, 0x05, 0x02, 0x09,
  0x00, 0x0b, 0x00, 0xfc, 0xfc, 0x00, 0xfd, 0xf3, 0xfa, 0x00, 0x06, 0xfb,
  0xef, 0xce, 0x00, 0x00, 0xfa, 0x0c, 0xee, 0xe6, 0xfd, 0x01, 0x08, 0xf8,
  0xf8, 0x04, 0xcc, 0xf8, 0x00, 0xf1, 0x02, 0xd2, 0xfa, 0xfe, 0x01, 0xff,
  0xfc, 0x02, 0xff, 0x01, 0x00, 0xf8, 0x04, 0xef, 0xee, 0x08, 0x09, 0xf7,
  0xfc, 0x01, 0xff, 0x00, 0xfc, 0xfc, 0xff, 0xfd, 0xeb, 0x03, 0xfc, 0xfc,
  0xfa, 0x00, 0x08, 0x02, 0xfc, 0x05, 0x01, 0x0b, 0xf4, 0x07, 0x0a, 0xff,
  0x09, 0xf9, 0x10, 0xff, 0x02, 0xf7, 0xf4, 0x21, 0xf9, 0xf6, 0xfe, 0xf9,
  0x03, 0xf7, 0xf3, 0xf8, 0x06, 0xe7, 0xf6, 0xf4, 0xe5, 0x10, 0x03, 0xfb,
  0x08, 0x11, 0x04, 0xff, 0x0a, 0xed, 0xfd, 0xe2, 0xdc, 0x17, 0xf8, 0xdc,
  0x02, 0x06, 0x06, 0xf9, 0xdd, 0xe7, 0x05, 0xf8, 0xf3, 0xf8, 0xf0, 0xf3,
  0x09, 0x02, 0xff, 0xfd, 0xf7, 0x03, 0x15, 0x12, 0xf1, 0xfb, 0x00, 0x07,
  0x03, 0x08, 0x00, 0x0b, 0x06, 0xfe, 0x09, 0x09, 0xd8, 0x05, 0xfd, 0xf1,
  0xfd, 0x06, 0x01, 0x03, 0xf7, 0xfb, 0x01, 0xf8, 0xfd, 0x04, 0x01, 0xf5,
  0x06, 0x08, 0x04, 0x01, 0xfd, 0x04, 0x01, 0xf4, 0xf9, 0x02, 0x07, 0xf8,
  0xfa, 0xea, 0x00, 0xf5, 0xfc, 0xf8, 0xea, 0xe2, 0xfb, 0xff, 0x00, 0xfe,
  0xed, 0xff, 0xf4, 0xfb, 0xfb, 0xee, 0xf8, 0xd5, 0xfe, 0x05, 0xfc, 0xf5,
  0xfa, 0xfd, 0xf5, 0xfc, 0xfe, 0xfa, 0x01, 0xf3, 0xf9, 0x01, 0xf9, 0xf1,
  0xfb, 0x03, 0x00, 0x00, 0x00, 0x01, 0x03, 0xf9, 0xed, 0x05, 0x06, 0xf9,
  0x05, 0x00, 0xfa, 0xff, 0x02, 0xfd, 0xfe, 0x00, 0x02, 0x00, 0x05, 0xf1,
  0x0a, 0xff, 0x11, 0xfb, 0x0a, 0xf9, 0xf7, 0x0f, 0xee, 0xf4, 0xfe, 0xf7,
  0x03, 0xfa, 0xef, 0xfd, 0xf8, 0xe4, 0xfa, 0xf2, 0xe1, 0x14, 0x0a, 0xe8,
  0xf7, 0x11, 0x0e, 0xfe, 0x01, 0xf1, 0x0c, 0xe5, 0xd3, 0x0f, 0xfb, 0xe1,
  0x06, 0x13, 0x01, 0x01, 0xe2, 0xf0, 0x0c, 0xf9, 0xdf, 0x04, 0xfb, 0xef,
  0x0f, 0xf7, 0xff, 0xf6, 0xfe, 0xf4, 0x06, 0x17, 0xed, 0xfd, 0x00, 0xfe,
  0x00, 0x08, 0x04, 0x05, 0x01, 0x00, 0x05, 0x07, 0xdd, 0xfc, 0x07, 0xfc,
  0xfc, 0x07, 0xfd, 0x03, 0xfd, 0x06, 0x00, 0xe9, 0xf5, 0x09, 0xfd, 0xee,
  0xfa, 0x01, 0xff, 0x00, 0xf9, 0xf8, 0xf8, 0xe4, 0xf6, 0x01, 0xfc, 0xea,
  0xeb, 0xd1, 0xf6, 0x02, 0xfa, 0xfd, 0xdd, 0xf7, 0xfa, 0x08, 0x07, 0xfb,
  0xfd, 0xfb, 0x03, 0xff, 0xfd, 0xfc, 0x02, 0xdf, 0xfd, 0x03, 0xfb, 0xfc,
  0x05, 0xfe, 0x08, 0xfd, 0x00, 0xfe, 0x02, 0xee, 0xfe, 0x03, 0x03, 0x0a,
  0xf7, 0x06, 0xfc, 0x00, 0x05, 0x08, 0x05, 0x07, 0xf4, 0x01, 0x02, 0xf7,
  0x02, 0xf7, 0xf6, 0xfd, 0xfb, 0x00, 0xf9, 0x1d, 0x1b, 0xf9, 0x04, 0x14,
  0x09, 0xf8, 0x03, 0xff, 0x03, 0x02, 0xff, 0x10, 0xea, 0xf4, 0xfb, 0x0d,
  0xfe, 0xf2, 0xf4, 0x03, 0x08, 0x00, 0xf8, 0x01, 0xf2, 0x0b, 0x03, 0xf5,
  0xfd, 0x11, 0x08, 0x03, 0x00, 0xfd, 0x08, 0xea, 0xdd, 0x16, 0xf8, 0xdc,
  0x05, 0x09, 0x0a, 0xf9, 0xed, 0xfc, 0x04, 0x07, 0xf7, 0xfe, 0xfb, 0xf1,
  0x0e, 0x00, 0xfd, 0x01, 0x05, 0xf4, 0x0b, 0x0d, 0xeb, 0xfc, 0xf9, 0xeb,
  0x00, 0xfd, 0xfb, 0xfd, 0xf0, 0xfa, 0x01, 0xff, 0xfe, 0xf7, 0x09, 0xf9,
  0x02, 0xff, 0xf7, 0x05, 0xf8, 0x07, 0x00, 0xfd, 0xec, 0x0a, 0x09, 0xf3,
  0x01, 0x08, 0x07, 0xff, 0x03, 0x03, 0x0d, 0xed, 0xfb, 0xfe, 0xfe, 0xee,
  0xef, 0x04, 0xfe, 0x0b, 0xf9, 0xf0, 0xff, 0xe7, 0xfd, 0x01, 0x02, 0xfc,
  0xf3, 0xff, 0x03, 0xf9, 0x01, 0xf7, 0xfe, 0xdc, 0xfd, 0xfe, 0xdf, 0xf6,
  0xf5, 0xfe, 0xfd, 0xf9, 0x03, 0xf6, 0xfd, 0xf5, 0x00, 0xff, 0x01, 0xf5,
  0xf9, 0x03, 0xfb, 0x06, 0xf8, 0x01, 0xfd, 0x07, 0xf8, 0x00, 0x02, 0xf4,
  0x04, 0xf6, 0x02, 0xfc, 0xf5, 0x04, 0x02, 0x13, 0x1b, 0xfd, 0xfe, 0x15,
  0xfd, 0x03, 0x06, 0x01, 0x11, 0xfd, 0x00, 0x0b, 0xf8, 0xf7, 0xfc, 0x08,
  0xff, 0xef, 0x02, 0xff, 0xf7, 0xfc, 0xf5, 0xf8, 0xfa, 0x03, 0xfa, 0xfd,
  0xf5, 0xfd, 0xf7, 0xf6, 0xf7, 0xfc, 0xea, 0xf4, 0xfd, 0x03, 0xfb, 0xe4,
  0x06, 0xff, 0x01, 0xfe, 0xe2, 0xfa, 0x09, 0x0e, 0xfd, 0xfb, 0xfd, 0x06,
  0x0f, 0xfb, 0x02, 0xfe, 0x07, 0xfa, 0x11, 0x14, 0xf1, 0xfb, 0xf6, 0x0c,
  0x00, 0xff, 0x05, 0xfb, 0xfd, 0x04, 0x05, 0x09, 0xf8, 0xfa, 0x01, 0x15,
  0x01, 0x02, 0xf7, 0x01, 0xf3, 0x07, 0xfe, 0x01, 0xe5, 0x02, 0x00, 0xf4,
  0x03, 0x0e, 0x05, 0x07, 0x02, 0x00, 0xf3, 0xeb, 0xfa, 0x05, 0xfb, 0xfd,
  0xe2, 0x07, 0x01, 0x01, 0xf3, 0xe9, 0x04, 0xe3, 0xf7, 0x00, 0xff, 0xf7,
  0xf8, 0x03, 0xfe, 0xfa, 0xff, 0xfc, 0xff, 0xd9, 0xf7, 0x03, 0xf2, 0xf1,
  0xf4, 0xfe, 0xf3, 0xfd, 0xfb, 0xf5, 0xff, 0xf4, 0xfd, 0x07, 0x03, 0xf3,
  0xfd, 0xf4, 0xef, 0x05, 0xee, 0x0c, 0xfc, 0xfb, 0xfe, 0x03, 0x04, 0x0a,
  0xf7, 0x05, 0x03, 0xfe, 0x00, 0x02, 0x05, 0x08, 0x18, 0xf5, 0x03, 0x18,
  0xf1, 0x08, 0xeb, 0x02, 0x08, 0x08, 0x06, 0x08, 0x01, 0xf8, 0xf9, 0xfc,
  0xfe, 0xf3, 0xfb, 0xfe, 0xfd, 0xfd, 0xf5, 0x01, 0x07, 0x04, 0xfb, 0x05,
  0xf7, 0xf8, 0xef, 0xfe, 0xfa, 0x03, 0xf3, 0xfb, 0x09, 0x02, 0xfd, 0xe4,
  0x05, 0x0a, 0xfa, 0xf7, 0x07, 0xfe, 0x03, 0x02, 0x07, 0xf5, 0x02, 0x01,
  0xff, 0x04, 0xfb, 0x01, 0xfb, 0x03, 0x10, 0x04, 0xfb, 0xfa, 0xfb, 0xf5,
  0xf2, 0x00, 0x02, 0xfc, 0x04, 0x06, 0xff, 0x00, 0x07, 0xfa, 0xfc, 0x14,
  0xf6, 0xff, 0x00, 0x02, 0xf9, 0x03, 0x03, 0x0a, 0x01, 0x02, 0x05, 0x00,
  0x00, 0xf7, 0xff, 0x07, 0x00, 0x09, 0xed, 0xf8, 0xf7, 0x08, 0x03, 0xf9,
  0xf1, 0xfc, 0x04, 0xfa, 0xf8, 0xfa, 0xf0, 0xfc, 0xf6, 0xf7, 0xff, 0xe8,
  0x06, 0x02, 0xfe, 0xf5, 0x03, 0xfe, 0x0b, 0xe7, 0xfc, 0xfd, 0xeb, 0xfb,
  0x14, 0x04, 0x06, 0xfe, 0x03, 0xf7, 0x01, 0xf7, 0x01, 0x04, 0xf6, 0xfb,
  0x05, 0xf8, 0xfc, 0xf2, 0xed, 0xf6, 0xe9, 0x0b, 0x10, 0xf2, 0x06, 0x1a,
  0xf4, 0x0c, 0x08, 0xef, 0x0d, 0x0e, 0xf8, 0xfb, 0x0d, 0xf0, 0x0d, 0x0d,
  0xe8, 0xfa, 0xfc, 0xfd, 0xf9, 0x07, 0xf0, 0x03, 0x04, 0xf1, 0x02, 0xff,
  0xfe, 0xec, 0xfd, 0xfe, 0x18, 0x00, 0xdf, 0x00, 0x11, 0x05, 0xf9, 0xfa,
  0x15, 0xfa, 0x0c, 0xfc, 0x0c, 0x05, 0xd8, 0x01, 0x14, 0x09, 0x01, 0xfb,
  0x02, 0x1a, 0x07, 0xff, 0x18, 0x06, 0xfa, 0x01, 0x0c, 0xfb, 0x05, 0x00,
  0xf7, 0xf6, 0xf6, 0xfd, 0xe8, 0x01, 0xe2, 0xfa, 0xfb, 0xf5, 0xf7, 0x02,
  0x06, 0x01, 0x05, 0x03, 0x0e, 0xff, 0x03, 0x14, 0x11, 0x03, 0xf0, 0x05,
  0x17, 0xf7, 0x05, 0xff, 0xf7, 0x02, 0x04, 0x02, 0x11, 0xfd, 0xf8, 0x10,
  0x17, 0xf2, 0xf9, 0x07, 0xf5, 0xfb, 0xf3, 0xf9, 0xf6, 0x0f, 0x08, 0xf7,
  0xec, 0xef, 0x0e, 0xf7, 0xfc, 0x02, 0x00, 0xe1, 0xf8, 0x02, 0xfb, 0xf3,
  0xe4, 0xd6, 0xf5, 0xf8, 0xfb, 0xeb, 0xe4, 0xef, 0xf8, 0xf3, 0xfe, 0xf9,
  0xf6, 0xce, 0xeb, 0xe4, 0xfa, 0xe0, 0xe6, 0xe5, 0xf8, 0xdd, 0xe7, 0xfa,
  0xf4, 0xec, 0xe0, 0xf9, 0xfc, 0xdd, 0xe6, 0x00, 0xf9, 0xf8, 0xf3, 0xf9,
  0xe4, 0xdb, 0xfd, 0xf0, 0xf5, 0xe5, 0xea, 0xca, 0xfb, 0xf8, 0xdf, 0xfd,
  0xfd, 0xec, 0xd8, 0xf7, 0xf7, 0xf9, 0xf5, 0xf9, 0xfe, 0xee, 0xe9, 0xfb,
  0xfc, 0xe6, 0xd5, 0xf0, 0xf3, 0xf0, 0xfb, 0xcb, 0x08, 0xf7, 0xdf, 0x04,
  0xf3, 0xe8, 0xdf, 0xf4, 0xfa, 0xbe, 0xf7, 0xbb, 0x09, 0xf5, 0xef, 0xff,
  0xf6, 0xe5, 0xd5, 0xdb, 0xfb, 0xc9, 0xf8, 0xc6, 0x01, 0xd1, 0xe3, 0xfa,
  0x05, 0x0b, 0xdd, 0xfa, 0xff, 0xe4, 0x07, 0xf0, 0x01, 0xfb, 0xfd, 0xf3,
  0x04, 0x00, 0x04, 0x05, 0xfc, 0x01, 0x0c, 0x18, 0xf9, 0x06, 0x15, 0xff,
  0x07, 0x26, 0xff, 0xf9, 0x02, 0x18, 0x17, 0xfa, 0xfb, 0xff, 0xfa, 0xff,
  0x03, 0x19, 0x04, 0x02, 0xfe, 0xed, 0x07, 0xd7, 0xfc, 0x0a, 0x0c, 0xfc,
  0x06, 0xfa, 0x04, 0x00, 0xfe, 0xe8, 0xec, 0xf1, 0xf9, 0x01, 0x09, 0xf6,
  0xf7, 0xeb, 0xf4, 0xf3, 0xf8, 0xeb, 0xf2, 0xe7, 0xf5, 0xe9, 0xf1, 0xf8,
  0xec, 0xe5, 0x03, 0xe8, 0xf7, 0xda, 0xdc, 0x05, 0xf7, 0xf6, 0xfb, 0xfa,
  0xf6, 0xdb, 0xf6, 0xed, 0xf9, 0x03, 0xd7, 0x00, 0xfc, 0xc3, 0xee, 0xf3,
  0xf8, 0xf6, 0xd5, 0x01, 0xf6, 0xfe, 0xef, 0x01, 0xfd, 0xf5, 0xf9, 0xfa,
  0x00, 0xfb, 0xf5, 0xff, 0xfc, 0x01, 0xf7, 0x15, 0xfd, 0x03, 0xfb, 0x04,
  0x03, 0xfa, 0xd4, 0xf7, 0x00, 0x0e, 0xfe, 0xf9, 0xfd, 0xea, 0xfe, 0xfa,
  0xff, 0xef, 0xe2, 0xf9, 0xf5, 0xe6, 0xf1, 0xf9, 0xfd, 0xf9, 0xfc, 0xf9,
  0xfe, 0xf0, 0xe2, 0xf3, 0xf9, 0xf6, 0x00, 0x08, 0xf5, 0xfc, 0xfb, 0xfb,
  0x00, 0x0d, 0xef, 0x09, 0xf6, 0xfd, 0xfc, 0x01, 0xf8, 0x00, 0x0b, 0xf8,
  0xff, 0xfd, 0x0c, 0x04, 0xf4, 0x15, 0x0b, 0x16, 0xf7, 0x0e, 0x0d, 0xf9,
  0x03, 0x14, 0x0b, 0xfb, 0x07, 0x1a, 0x0d, 0x0f, 0xf3, 0xf9, 0x09, 0xf6,
  0x0b, 0x04, 0x0a, 0x09, 0xf7, 0x11, 0x0b, 0x0c, 0xfd, 0x09, 0x0a, 0xf8,
  0x06, 0x07, 0x05, 0xfd, 0xfc, 0xff, 0x08, 0x04, 0xf8, 0x0b, 0x03, 0xfa,
  0xfd, 0xf3, 0xe2, 0xe4, 0xf8, 0xdf, 0xfc, 0xf6, 0xf7, 0xf7, 0xf9, 0xfc,
  0xec, 0xc6, 0x04, 0xe7, 0xf2, 0xd0, 0xc3, 0xda, 0xfa, 0xf7, 0xde, 0xf8,
  0xe5, 0xbd, 0xfc, 0xbe, 0xfd, 0xee, 0xb1, 0x03, 0xfd, 0xd8, 0xe6, 0xf5,
  0xfc, 0xf7, 0xb4, 0xfb, 0xfb, 0x02, 0xe7, 0x00, 0xfc, 0xec, 0xeb, 0xf2,
  0xfd, 0xfe, 0xf6, 0x02, 0xf8, 0x03, 0xec, 0xfe, 0xf8, 0x08, 0x05, 0xf8,
  0xfa, 0x00, 0xef, 0x00, 0xf7, 0xf6, 0xfd, 0xf8, 0xfd, 0xfb, 0xf4, 0xfa,
  0x0a, 0xfa, 0xf5, 0xf5, 0xfc, 0xf8, 0x05, 0xf5, 0x0c, 0xfb, 0xf4, 0xfd,
  0x09, 0x05, 0xf3, 0xfb, 0x0b, 0xf3, 0x07, 0x0f, 0x06, 0xff, 0xff, 0x0a,
  0x01, 0xff, 0x11, 0xfd, 0xfe, 0x03, 0xef, 0x0f, 0x00, 0xfe, 0x10, 0x05,
  0xff, 0x11, 0xf4, 0x0b, 0x06, 0x0e, 0x0e, 0x0a, 0xf0, 0xfa, 0x0d, 0x01,
  0xf3, 0x09, 0x07, 0xf8, 0x01, 0x14, 0x03, 0x1f, 0xf8, 0xf4, 0x06, 0x03,
  0xfb, 0x19, 0x07, 0x01, 0x05, 0x1d, 0x0f, 0x13, 0xf8, 0xfe, 0x08, 0xfd,
  0x0a, 0xfa, 0x0a, 0x0d, 0xfb, 0x06, 0xfa, 0x09, 0xfe, 0x11, 0x04, 0xfc,
  0xef, 0xef, 0xcf, 0xf4, 0xfc, 0x00, 0xf0, 0x02, 0xf5, 0xca, 0xfe, 0xf6,
  0xed, 0xb3, 0xd3, 0xee, 0xeb, 0xfa, 0xdf, 0xfa, 0xfc, 0xeb, 0xf0, 0xfa,
  0xe4, 0xc1, 0xf6, 0xe1, 0xf0, 0xf0, 0xe2, 0xd8, 0x0a, 0xde, 0xcd, 0xfe,
  0xfe, 0xed, 0xe7, 0xe5, 0x05, 0xe6, 0xe6, 0xe4, 0x06, 0xdf, 0xe8, 0xff,
  0xe7, 0xf6, 0xd1, 0xef, 0x00, 0xec, 0xf3, 0xfa, 0x04, 0xe0, 0xe2, 0xf8,
  0xff, 0x04, 0xe8, 0xfc, 0xf9, 0xe2, 0x09, 0x01, 0x02, 0xfa, 0xfb, 0xfe,
  0x11, 0x08, 0xf6, 0x02, 0x06, 0xfd, 0xff, 0xf5, 0x07, 0xff, 0xf9, 0xfc,
  0xf7, 0xf0, 0x03, 0xf4, 0xfb, 0xf6, 0xef, 0x06, 0x10, 0xfa, 0x02, 0xf9,
  0xf3, 0xee, 0xf2, 0xf3, 0xf7, 0x02, 0xeb, 0x0d, 0x07, 0xed, 0x06, 0x06,
  0xfd, 0xfc, 0xf4, 0xe7, 0x09, 0x17, 0xf8, 0x20, 0xfd, 0xec, 0x06, 0xfb,
  0xff, 0xf0, 0x02, 0xf8, 0xf6, 0x19, 0xf5, 0x1e, 0xfb, 0xf1, 0xfb, 0xf9,
  0xfc, 0x0b, 0x01, 0xfd, 0x06, 0x17, 0x07, 0x24, 0xfd, 0xfa, 0xff, 0x03,
  0x0e, 0x17, 0x03, 0x0c, 0xfe, 0x19, 0x0f, 0x00, 0xfe, 0x03, 0x08, 0xfd,
  0xf4, 0xdb, 0xbb, 0xd4, 0xf2, 0xed, 0xe9, 0xf5, 0xf5, 0xbd, 0xe2, 0xf1,
  0xe8, 0xe7, 0xf0, 0xe0, 0xf6, 0xf6, 0xec, 0x0a, 0xfd, 0xdd, 0xf0, 0xfe,
  0xf8, 0xe4, 0xe4, 0xe8, 0xfa, 0xfe, 0xf4, 0xff, 0x06, 0xdc, 0xe6, 0x09,
  0xef, 0xef, 0xeb, 0xec, 0xff, 0xf6, 0xf3, 0x02, 0x0f, 0xe6, 0xf1, 0x05,
  0xf2, 0xf7, 0xf3, 0xf0, 0xfb, 0x01, 0xf2, 0x06, 0x0b, 0x00, 0xfc, 0x07,
  0x03, 0x03, 0x09, 0x08, 0x00, 0x13, 0xfd, 0x06, 0xf7, 0xf6, 0xfc, 0xfc,
  0xff, 0x04, 0x05, 0x0a, 0x00, 0x0e, 0xfd, 0x01, 0xfd, 0x0f, 0xfb, 0xff,
  0xfe, 0xeb, 0x01, 0xfa, 0xea, 0xf7, 0xf2, 0xfb, 0x19, 0xf8, 0xf0, 0xf9,
  0xfd, 0xed, 0xed, 0xf0, 0xf9, 0xf4, 0xf4, 0x16, 0x0f, 0xed, 0x03, 0x0b,
  0x00, 0xee, 0xfc, 0xfb, 0xfa, 0x22, 0xf3, 0x1e, 0x04, 0xfa, 0xfb, 0x0c,
  0xfd, 0xf8, 0x03, 0xff, 0xf4, 0x21, 0x07, 0x1f, 0x03, 0xf5, 0x03, 0x0b,
  0x03, 0xfc, 0xf5, 0xfb, 0xff, 0x15, 0x0a, 0x1c, 0x02, 0xfb, 0xf6, 0x0e,
  0xf6, 0xea, 0x01, 0xf6, 0x07, 0x11, 0xec, 0x0d, 0xfa, 0xf4, 0x00, 0x01,
  0xeb, 0xf5, 0xed, 0xe5, 0xfb, 0xc9, 0x01, 0xf0, 0x06, 0xf9, 0xdf, 0x05,
  0x0c, 0xef, 0x06, 0xe3, 0xfb, 0xe3, 0x08, 0xef, 0x02, 0xe9, 0xf2, 0x07,
  0xfe, 0xf6, 0xec, 0xff, 0x04, 0xe5, 0xf8, 0xfe, 0x0c, 0xfe, 0xfd, 0xfb,
  0xf1, 0x00, 0x01, 0x0b, 0xfe, 0x06, 0x02, 0x03, 0x10, 0x06, 0x00, 0x0a,
  0xf2, 0xfb, 0x0b, 0x0b, 0x08, 0x11, 0x00, 0xee, 0x1a, 0x04, 0xf7, 0x0b,
  0xf8, 0x06, 0x00, 0xfc, 0x13, 0x0a, 0xf7, 0x01, 0x1e, 0xf3, 0xf3, 0x05,
  0x04, 0x0f, 0x09, 0x0b, 0x07, 0x0c, 0x07, 0x05, 0x28, 0x03, 0x01, 0xea,
  0x05, 0x0f, 0xfb, 0x02, 0x0c, 0x05, 0x0a, 0x08, 0x25, 0xfd, 0x03, 0x0c,
  0x07, 0x03, 0x02, 0xf7, 0xf5, 0x03, 0xfa, 0x02, 0x14, 0xfd, 0x0b, 0x03,
  0x02, 0xf7, 0x0f, 0xfe, 0xf1, 0x0b, 0x01, 0x0d, 0xf8, 0x09, 0x06, 0xfe,
  0x0b, 0x05, 0x02, 0x00, 0xf9, 0x15, 0x08, 0x11, 0x03, 0xfb, 0xfe, 0x05,
  0x02, 0xfa, 0xfb, 0x08, 0xf6, 0x0f, 0x07, 0x06, 0xf6, 0xf6, 0x0d, 0x0b,
  0xef, 0xe0, 0x04, 0xf2, 0xd8, 0x0b, 0xee, 0x1a, 0xfb, 0xf0, 0x07, 0x05,
  0xfd, 0xfa, 0xf7, 0xfc, 0xf1, 0xc7, 0xfb, 0xe3, 0xfa, 0x0d, 0xfb, 0x0c,
  0x0e, 0x04, 0xe7, 0xf7, 0x15, 0xdd, 0x09, 0xd8, 0x01, 0x15, 0xf7, 0x06,
  0x0c, 0x0b, 0x0d, 0x03, 0xff, 0xf3, 0x07, 0x04, 0x02, 0x0d, 0x18, 0x04,
  0x03, 0xf5, 0x00, 0xff, 0x05, 0xee, 0xfd, 0xfe, 0x12, 0x04, 0x04, 0x0b,
  0x01, 0xfd, 0x01, 0x07, 0x06, 0xf9, 0xf6, 0x01, 0x12, 0x04, 0xfa, 0x10,
  0xfa, 0xf4, 0x09, 0xfd, 0x00, 0xff, 0xf1, 0x08, 0x29, 0x07, 0xfb, 0x0b,
  0x15, 0x0a, 0x06, 0x08, 0x09, 0xfe, 0xfa, 0x03, 0x27, 0x01, 0xf7, 0x0f,
  0x05, 0x04, 0x01, 0xfd, 0x09, 0xf3, 0xfd, 0x0e, 0x25, 0xf9, 0xfb, 0x03,
  0x0c, 0x0e, 0x02, 0x01, 0x08, 0x00, 0x06, 0x09, 0x23, 0x00, 0x01, 0x06,
  0x05, 0x03, 0x10, 0x03, 0xf8, 0xf8, 0x04, 0xfc, 0x20, 0x07, 0x02, 0xf9,
  0x0d, 0x09, 0x03, 0xfd, 0xfb, 0xf7, 0x08, 0x01, 0x1c, 0xfa, 0x0d, 0x01,
  0xf8, 0xf8, 0x0a, 0x05, 0xfa, 0x0c, 0xff, 0x0c, 0x20, 0xff, 0x08, 0x05,
  0xf2, 0xe7, 0x03, 0xf3, 0xda, 0x15, 0x07, 0x0d, 0x0b, 0xf6, 0x08, 0x0e,
  0xfc, 0xfe, 0x0c, 0x0a, 0xdb, 0xf3, 0xf9, 0xf0, 0x04, 0x11, 0x0c, 0xfa,
  0x10, 0x14, 0x01, 0x00, 0x17, 0xf9, 0x07, 0x06, 0xfb, 0x10, 0x01, 0xf9,
  0x12, 0x0e, 0x05, 0x0f, 0xfb, 0xef, 0x0f, 0x00, 0xf0, 0x27, 0x0a, 0xef,
  0x0b, 0xf8, 0x18, 0x04, 0xf1, 0xfa, 0x07, 0x0a, 0x10, 0x0b, 0x01, 0xfd,
  0x05, 0xf0, 0x0e, 0x0e, 0xf6, 0xfa, 0xff, 0xfd, 0x22, 0x13, 0xfe, 0x00,
  0x04, 0x02, 0xff, 0xfc, 0xfe, 0xfa, 0x01, 0x04, 0x29, 0x05, 0x00, 0x06,
  0x05, 0xfe, 0x03, 0xfb, 0xff, 0x0e, 0xf3, 0x04, 0x43, 0xfb, 0xf0, 0x08,
  0x00, 0x02, 0x01, 0xf8, 0x00, 0xff, 0xf7, 0x01, 0x26, 0xf9, 0xfd, 0xf6,
  0xf5, 0x09, 0xfb, 0xf9, 0x07, 0x05, 0xfe, 0xf9, 0x1c, 0xf5, 0xfe, 0xf8,
  0xfd, 0x08, 0xfc, 0x08, 0x01, 0xf7, 0xf4, 0x09, 0x0d, 0x06, 0xff, 0xed,
  0xf8, 0xf6, 0x0a, 0x05, 0xf4, 0xf4, 0xfe, 0xfa, 0x0d, 0x05, 0xfd, 0xf2,
  0xf4, 0x04, 0x19, 0xfe, 0xfb, 0x04, 0x0a, 0xff, 0x28, 0xfb, 0x0c, 0x01,
  0xf6, 0xf0, 0xf7, 0xfb, 0xf7, 0x04, 0x0e, 0x08, 0x09, 0xfb, 0xff, 0x1b,
  0x01, 0xf8, 0x06, 0x0b, 0xe3, 0xfc, 0xfd, 0x02, 0x13, 0x14, 0xf9, 0xf3,
  0x06, 0x15, 0xff, 0x01, 0x0f, 0xf7, 0x12, 0xfd, 0xf8, 0x00, 0x07, 0xf7,
  0x09, 0x0d, 0x0a, 0x01, 0xfe, 0xfc, 0xfc, 0x0a, 0xe9, 0x16, 0x0c, 0xe7,
  0x0c, 0xf8, 0x17, 0x0d, 0xfb, 0x0d, 0x04, 0x09, 0xfa, 0x18, 0xfb, 0x01,
  0x12, 0xfe, 0x0f, 0x07, 0xfa, 0xff, 0x08, 0xfc, 0x22, 0x05, 0xf7, 0x08,
  0xfd, 0xf2, 0x17, 0x03, 0xfd, 0xfe, 0x02, 0xfe, 0x18, 0x12, 0xfe, 0xfa,
  0x07, 0x07, 0x02, 0xfe, 0xfa, 0x01, 0x0d, 0xff, 0x15, 0xfb, 0x07, 0x00,
  0xfb, 0xf8, 0x06, 0xfb, 0x00, 0x01, 0x0b, 0x02, 0x11, 0xf5, 0xfa, 0x04,
  0xff, 0x00, 0xfa, 0xfc, 0x06, 0x05, 0x06, 0xfd, 0x0c, 0xf3, 0x01, 0xfb,
  0xf1, 0xf9, 0xff, 0xf7, 0xe8, 0x08, 0x0a, 0x03, 0x01, 0xfa, 0x00, 0xe9,
  0x03, 0x00, 0xf6, 0x0b, 0xfc, 0x04, 0x06, 0x06, 0xf6, 0xff, 0x00, 0x04,
  0x04, 0xfa, 0x01, 0x07, 0xf4, 0x10, 0x0d, 0x03, 0x02, 0xf4, 0x00, 0x0f,
  0xf6, 0xfe, 0x05, 0x03, 0xfe, 0x03, 0x1b, 0x0a, 0xef, 0x02, 0x09, 0x0a,
  0x07, 0xf1, 0xde, 0x0e, 0xfb, 0x00, 0xf7, 0xfe, 0x13, 0x03, 0xfb, 0xff,
  0x08, 0x14, 0xf5, 0x09, 0x0d, 0x03, 0x11, 0x06, 0xfe, 0xf3, 0x0a, 0xfa,
  0x03, 0xfa, 0xf8, 0x09, 0xe4, 0x01, 0xff, 0x04, 0xfd, 0x0f, 0xff, 0xe5,
  0x0d, 0xee, 0xfa, 0xf8, 0xf4, 0xfc, 0xff, 0xff, 0x08, 0xf8, 0xfe, 0xf9,
  0x05, 0xf5, 0x05, 0x01, 0xf4, 0x00, 0x02, 0xff, 0x1b, 0x02, 0x00, 0x07,
  0x09, 0xff, 0xfe, 0x08, 0xf3, 0xf6, 0x0b, 0xff, 0x16, 0x07, 0x07, 0xf7,
  0xff, 0xff, 0x05, 0xf1, 0x0a, 0xfa, 0x03, 0x06, 0x20, 0x02, 0x02, 0xfd,
  0xf7, 0x05, 0x0a, 0xf3, 0x10, 0xfc, 0xfd, 0x02, 0x12, 0xf6, 0x06, 0xee,
  0xfe, 0x08, 0x0f, 0xef, 0x0e, 0x04, 0xfd, 0xfc, 0x04, 0xea, 0x02, 0xf7,
  0xfe, 0x0b, 0x01, 0xfe, 0xf6, 0x09, 0x12, 0xf8, 0xfc, 0xf4, 0x02, 0xf8,
  0xf9, 0xfb, 0xf6, 0xf6, 0xfc, 0xfd, 0xfb, 0xf4, 0xfd, 0xf7, 0xfa, 0xfc,
  0xf8, 0xf3, 0xf8, 0xfe, 0xf1, 0x04, 0xff, 0xf5, 0x0c, 0xf8, 0x04, 0xfc,
  0xf4, 0x0b, 0x13, 0x08, 0xf9, 0xff, 0x03, 0x08, 0xee, 0x07, 0x0f, 0xe7,
  0x05, 0xf7, 0xec, 0x00, 0x07, 0xff, 0xfa, 0x0b, 0x13, 0xfa, 0xfc, 0x0d,
  0x0a, 0x0d, 0xdd, 0xfd, 0x01, 0x0a, 0x0e, 0x0a, 0xfa, 0xe9, 0xff, 0x06,
  0x09, 0xfd, 0xed, 0x09, 0xf9, 0x02, 0x00, 0x03, 0xee, 0xf7, 0x01, 0xfd,
  0x09, 0xef, 0x03, 0xff, 0xef, 0x03, 0x05, 0x0f, 0xfb, 0xfc, 0x03, 0x03,
  0x03, 0xf1, 0x11, 0x0c, 0xfa, 0x07, 0x00, 0x05, 0x07, 0x0b, 0x05, 0x03,
  0x08, 0xfb, 0x08, 0x04, 0xf3, 0xf8, 0x00, 0x09, 0x03, 0xfd, 0x01, 0xf5,
  0xf8, 0x01, 0x08, 0xf5, 0xfd, 0xfc, 0x01, 0xf8, 0x07, 0xf1, 0x00, 0xf8,
  0xf1, 0x00, 0x0b, 0xf3, 0xfc, 0xf3, 0xec, 0xfc, 0x02, 0xf2, 0x01, 0xeb,
  0xed, 0x14, 0x03, 0xf1, 0x0e, 0xfa, 0xf1, 0xf1, 0x03, 0xf6, 0xfe, 0xe9,
  0xed, 0x0e, 0xf0, 0xff, 0x07, 0xfd, 0x06, 0xf2, 0x01, 0xf7, 0xf9, 0xe2,
  0x07, 0x00, 0xf3, 0xfe, 0xf9, 0xf6, 0x07, 0xf5, 0xf8, 0xf4, 0xfd, 0xf1,
  0xf5, 0x04, 0xf8, 0x06, 0xfc, 0x02, 0x0a, 0xfe, 0xfc, 0x05, 0x06, 0xf8,
  0xf9, 0xfe, 0x0e, 0x08, 0xec, 0xff, 0x07, 0xf7, 0xff, 0x09, 0x05, 0x01,
  0x02, 0xf2, 0xed, 0x02, 0xf5, 0x01, 0x07, 0xfd, 0x0a, 0x00, 0xff, 0x1e,
  0x02, 0x02, 0xda, 0xf8, 0x01, 0x02, 0x0e, 0x03, 0x03, 0xe4, 0x03, 0x18,
  0x0d, 0xf0, 0xd3, 0xfd, 0xfc, 0x06, 0xf9, 0x05, 0x04, 0xe9, 0x00, 0xfd,
  0x03, 0xfa, 0xee, 0x05, 0xfe, 0xfa, 0xfd, 0x06, 0xfc, 0xf9, 0x01, 0xfe,
  0x0b, 0xeb, 0x06, 0xfe, 0xf2, 0xfa, 0xff, 0x02, 0x09, 0xff, 0x01, 0x0a,
  0x01, 0xfa, 0x04, 0xf3, 0xfd, 0xfc, 0xfc, 0x08, 0x08, 0xf1, 0x03, 0x02,
  0xf5, 0x02, 0x0d, 0xf8, 0xfa, 0x00, 0xf4, 0xf8, 0x04, 0xfc, 0x02, 0xf4,
  0xff, 0xe8, 0x13, 0xeb, 0xfb, 0xff, 0xe2, 0xfd, 0x02, 0xf8, 0x04, 0xf7,
  0xe9, 0x00, 0x0a, 0xeb, 0xff, 0xfe, 0xfb, 0xee, 0x05, 0xea, 0xf4, 0xfc,
  0x03, 0x0f, 0xf5, 0x08, 0x11, 0x03, 0x0a, 0xf8, 0x03, 0xf5, 0xff, 0xfa,
  0xfc, 0x0e, 0xee, 0xfb, 0x01, 0x00, 0x06, 0xff, 0xf6, 0xef, 0xfb, 0xf8,
  0xfd, 0x08, 0xfa, 0x0e, 0xfb, 0x0c, 0x0d, 0x00, 0xf4, 0x04, 0x05, 0xf6,
  0xfe, 0x0a, 0x09, 0x0c, 0xf1, 0xff, 0x0d, 0xf4, 0xf9, 0x10, 0x07, 0xf4,
  0x0c, 0x07, 0x0c, 0x0d, 0xf3, 0x0b, 0x20, 0x0a, 0xfb, 0x0a, 0x0e, 0x12,
  0x06, 0x02, 0xf2, 0x02, 0xfb, 0x01, 0x11, 0x0a, 0x01, 0xf0, 0x06, 0x13,
  0xf9, 0xda, 0xde, 0xf5, 0xf8, 0x03, 0xf2, 0x06, 0x02, 0xdf, 0xfa, 0x14,
  0x09, 0xf9, 0xd8, 0xfb, 0xfa, 0xfe, 0xf8, 0xfc, 0xff, 0xee, 0xff, 0xf7,
  0x01, 0xe5, 0xf6, 0x05, 0xf5, 0xfc, 0xf7, 0xfb, 0x01, 0x01, 0xfe, 0xfa,
  0xfd, 0xf9, 0x05, 0xf9, 0xfe, 0xf7, 0x00, 0x02, 0x06, 0xf4, 0xfd, 0x02,
  0xfc, 0x00, 0x17, 0xf9, 0xf8, 0x05, 0xf1, 0x10, 0xfe, 0x02, 0x11, 0xfc,
  0xfa, 0xdb, 0x11, 0xec, 0xfe, 0x0b, 0xe5, 0xf8, 0x02, 0xf9, 0xfe, 0x00,
  0xeb, 0xfc, 0xf4, 0xec, 0x03, 0xea, 0xf4, 0xeb, 0x07, 0xe4, 0xec, 0x07,
  0xe9, 0x08, 0xed, 0xe9, 0x0e, 0xfe, 0xfe, 0xf7, 0x01, 0xdf, 0xee, 0x07,
  0xf8, 0x00, 0xf4, 0xf6, 0xfb, 0xff, 0xfa, 0xfd, 0xff, 0xf2, 0xfa, 0xfb,
  0x04, 0x17, 0xf8, 0x0f, 0x08, 0x0d, 0x17, 0x03, 0xf7, 0x09, 0xfb, 0xf6,
  0x01, 0x0d, 0x08, 0x11, 0xfa, 0x0a, 0x0b, 0x02, 0xf7, 0x10, 0x09, 0xf6,
  0x03, 0x08, 0x0c, 0xff, 0x01, 0x03, 0x0a, 0x01, 0xff, 0xf6, 0x02, 0x02,
  0x0a, 0x0d, 0xf7, 0x11, 0x00, 0x0e, 0x04, 0xfe, 0xfc, 0x0b, 0x1c, 0xfa,
  0x05, 0x07, 0x12, 0x0d, 0xff, 0xf9, 0x05, 0x04, 0xfc, 0x06, 0x05, 0x01,
  0xfd, 0xf2, 0x10, 0x09, 0xfd, 0x1e, 0x06, 0x11, 0xff, 0x13, 0xf9, 0x10,
  0x07, 0xf0, 0xf5, 0x02, 0x01, 0xf1, 0xf4, 0x0c, 0x19, 0xfa, 0xff, 0xfc,
  0x04, 0x16, 0x05, 0xfc, 0x1e, 0xf3, 0xfa, 0x04, 0xfa, 0x06, 0x01, 0x10,
  0x06, 0x13, 0x0c, 0x06, 0x18, 0xf2, 0x02, 0x05, 0x07, 0x0e, 0xfd, 0x01,
  0x0e, 0x29, 0x0b, 0x09, 0x18, 0xf0, 0x04, 0xf1, 0x0b, 0x03, 0x01, 0x06,
  0xf5, 0x17, 0xf3, 0xe9, 0x30, 0xee, 0xfb, 0xf6, 0x1b, 0xe6, 0x06, 0x0e,
  0xea, 0xff, 0xeb, 0xf6, 0xfe, 0x18, 0x08, 0x03, 0xfe, 0xff, 0xfa, 0x09,
  0x08, 0x06, 0xfe, 0xf7, 0xfc, 0x1a, 0x00, 0xfb, 0x04, 0xf1, 0xf7, 0xfe,
  0xfe, 0xf4, 0x01, 0xf7, 0xfb, 0xeb, 0xf2, 0xff, 0xfb, 0xf7, 0xff, 0xfc,
  0xe2, 0xec, 0xfd, 0xf9, 0xf8, 0x09, 0xd9, 0xf7, 0xfc, 0xfa, 0xea, 0xf8,
  0x02, 0x08, 0xf1, 0x09, 0xfd, 0xfe, 0xfe, 0xef, 0x00, 0x07, 0xf5, 0xf8,
  0xff, 0xff, 0x04, 0x05, 0x03, 0x0c, 0x01, 0xe9, 0x01, 0x04, 0xf9, 0xfd,
  0xfa, 0x03, 0xf4, 0x0f, 0xff, 0x12, 0x01, 0x07, 0x17, 0x19, 0xfd, 0xf2,
  0x00, 0xfb, 0x0d, 0x0f, 0xf2, 0x0f, 0x03, 0xff, 0xe2, 0x1e, 0xfe, 0x02,
  0xfd, 0xeb, 0x13, 0x09, 0xef, 0x0a, 0xf2, 0x0c, 0xfd, 0x14, 0xe9, 0xff,
  0x06, 0xfb, 0xfa, 0xfc, 0xe9, 0xfd, 0xf5, 0x0b, 0x09, 0xfa, 0xfd, 0xf0,
  0x05, 0x05, 0x0b, 0xfd, 0x0e, 0x12, 0xf0, 0xfc, 0x11, 0x0d, 0x00, 0xec,
  0x11, 0xfd, 0x06, 0xfd, 0xfb, 0xfd, 0xf6, 0xfb, 0x10, 0x03, 0xfc, 0x04,
  0x06, 0x00, 0xfc, 0xf2, 0x05, 0x05, 0xfd, 0xed, 0xf2, 0xf4, 0xfc, 0xfe,
  0xfd, 0x19, 0xfc, 0x0b, 0xf2, 0x09, 0x09, 0xee, 0xee, 0x03, 0x09, 0x13,
  0x04, 0x11, 0x01, 0xff, 0x00, 0x0a, 0x06, 0x03, 0xfb, 0xfb, 0xf9, 0xf9,
  0xf6, 0xf9, 0xfe, 0xf8, 0x00, 0x03, 0xf9, 0x08, 0xf7, 0xf7, 0x05, 0xfb,
  0xf6, 0xf8, 0xf6, 0xf5, 0xfe, 0xf8, 0xfa, 0xf5, 0xfe, 0xfc, 0xf1, 0x02,
  0xfc, 0xfe, 0xf8, 0xfe, 0x03, 0xfe, 0xfd, 0xf6, 0xfc, 0xf2, 0xfb, 0xf4,
  0xfe, 0xf8, 0xff, 0xf9, 0xfa, 0x0c, 0xff, 0x0e, 0x09, 0xf8, 0xf5, 0x03,
  0xfd, 0xfc, 0xe6, 0x0d, 0xfa, 0x06, 0xfe, 0x05, 0xed, 0x0b, 0xf6, 0x03,
  0xfa, 0xfb, 0xf9, 0x08, 0xf1, 0xf8, 0xff, 0xec, 0xed, 0x04, 0xfa, 0xf3,
  0xfe, 0x10, 0xf8, 0x0a, 0xfc, 0x04, 0x06, 0x05, 0xfd, 0x00, 0xfc, 0xf4,
  0xff, 0xf7, 0xf9, 0x01, 0xf8, 0x03, 0xfd, 0x08, 0xfa, 0xfd, 0xf8, 0xf9,
  0x03, 0x03, 0x00, 0x08, 0xfe, 0xfe, 0x07, 0x06, 0x09, 0x14, 0x06, 0xf8,
  0x01, 0xff, 0x02, 0x00, 0x06, 0x0b, 0xff, 0xee, 0xfb, 0xfc, 0xfd, 0xfd,
  0xfa, 0xf0, 0xee, 0x04, 0xf7, 0x00, 0x07, 0xdb, 0xf2, 0x07, 0xff, 0x01,
  0xf5, 0x01, 0xff, 0xf9, 0x0d, 0x0d, 0x08, 0xea, 0xef, 0xf9, 0x00, 0xfd,
  0xfb, 0xf9, 0xf8, 0x07, 0x06, 0xff, 0xfa, 0x01, 0xf0, 0x00, 0x07, 0xf2,
  0xf4, 0xf5, 0xfb, 0xfa, 0x00, 0x05, 0x0b, 0x0f, 0xfb, 0xf3, 0xf9, 0xfd,
  0x04, 0xf4, 0xfc, 0xfb, 0xf9, 0x00, 0xe3, 0x00, 0x00, 0xfa, 0xf9, 0x01,
  0x05, 0xfc, 0xeb, 0xfc, 0xfe, 0x08, 0xfb, 0x02, 0xfc, 0xf9, 0x06, 0xfb,
  0x03, 0xfd, 0xfc, 0xf9, 0x00, 0x06, 0xfb, 0x21, 0xff, 0xfc, 0xf7, 0x01,
  0x03, 0x00, 0xe5, 0xff, 0xf2, 0xf8, 0xfe, 0x03, 0xfb, 0xf7, 0xff, 0x03,
  0xfd, 0x09, 0x04, 0x04, 0xf2, 0xf5, 0x0d, 0x08, 0xef, 0x09, 0x0b, 0x04,
  0xfe, 0xf8, 0x16, 0x04, 0x02, 0x07, 0xfc, 0xf4, 0xeb, 0xfd, 0x01, 0xf8,
  0xff, 0x01, 0xf8, 0x02, 0xf1, 0x02, 0x08, 0xfc, 0xfe, 0x05, 0xff, 0xf3,
  0x00, 0x0a, 0xfa, 0xfa, 0x05, 0xef, 0x07, 0x03, 0xfb, 0xfe, 0x05, 0xf0,
  0xfc, 0xfc, 0xfe, 0xff, 0x02, 0xfe, 0x00, 0xea, 0xdf, 0xf7, 0xfe, 0xf3,
  0xf5, 0xfc, 0xfa, 0xfc, 0x05, 0xf2, 0xf8, 0xdf, 0xec, 0xfb, 0x02, 0xf6,
  0x03, 0x06, 0xfa, 0x01, 0xf4, 0xf9, 0x11, 0xfc, 0x01, 0x06, 0x05, 0x0b,
  0x02, 0xf8, 0xff, 0xfc, 0x0c, 0xff, 0xf8, 0x00, 0xf4, 0xfb, 0x08, 0xfb,
  0xf8, 0xfb, 0x00, 0xfb, 0xf2, 0x08, 0x08, 0x00, 0x00, 0xf8, 0x03, 0x0a,
  0x0a, 0xef, 0xf9, 0xfb, 0x04, 0xf2, 0xf2, 0x02, 0x01, 0x03, 0xfb, 0xfb,
  0xfa, 0xff, 0xed, 0xf2, 0x05, 0xfc, 0x05, 0x08, 0xff, 0xf4, 0x0a, 0x04,
  0x0c, 0x00, 0xfb, 0xff, 0x02, 0xfa, 0x00, 0x23, 0x00, 0xfe, 0xfd, 0x0c,
  0x0f, 0x01, 0xf9, 0xfe, 0xff, 0xf9, 0xff, 0x01, 0xfa, 0xff, 0x01, 0xf6,
  0x0a, 0x0a, 0x06, 0x06, 0xfb, 0xfd, 0x03, 0xf8, 0xf0, 0x06, 0x03, 0xeb,
  0xef, 0xfb, 0x02, 0x06, 0x03, 0x08, 0x02, 0xfb, 0xda, 0x00, 0xfc, 0x05,
  0x08, 0xf9, 0xf9, 0x05, 0xf8, 0x02, 0x0f, 0xf1, 0xef, 0x04, 0x03, 0xf9,
  0x05, 0xfe, 0x0c, 0xf0, 0x07, 0xfb, 0x03, 0xf9, 0xee, 0xfc, 0x03, 0xfd,
  0xfe, 0xfe, 0xfe, 0x08, 0x09, 0xef, 0x03, 0xec, 0xdf, 0x09, 0xfe, 0xf2,
  0xf8, 0xf2, 0xf5, 0xff, 0x03, 0xfa, 0xf7, 0xe2, 0xed, 0x05, 0x03, 0xed,
  0x00, 0x07, 0xff, 0x05, 0x05, 0xff, 0x02, 0x08, 0xf5, 0x06, 0x08, 0xf8,
  0xff, 0xfb, 0x00, 0xf7, 0xfd, 0x00, 0xfe, 0x0d, 0xef, 0xff, 0x04, 0xf6,
  0x07, 0xf8, 0xfe, 0xf5, 0xfb, 0xfe, 0xfd, 0x0a, 0x05, 0xfd, 0x06, 0x00,
  0x00, 0xfb, 0xf8, 0x0d, 0x02, 0x01, 0xfb, 0x06, 0x00, 0x02, 0xf3, 0x0a,
  0xff, 0xfd, 0xff, 0xf0, 0x02, 0x0e, 0xff, 0x1e, 0x01, 0xef, 0x01, 0xfd,
  0x0d, 0xfb, 0xf6, 0x00, 0x05, 0x0e, 0xff, 0x0f, 0xfd, 0xf5, 0x04, 0xf4,
  0x05, 0x01, 0x00, 0x03, 0xfe, 0x0b, 0xfd, 0x04, 0x01, 0x02, 0x04, 0xf9,
  0x06, 0x00, 0xff, 0x06, 0xfa, 0xfc, 0xf7, 0xf0, 0xe4, 0x02, 0xff, 0xeb,
  0xf7, 0x05, 0xfe, 0x06, 0xe6, 0xff, 0x04, 0xf8, 0xde, 0x00, 0xfa, 0x04,
  0xff, 0xf9, 0xef, 0x05, 0x0e, 0xff, 0xf8, 0xef, 0xe8, 0xfb, 0xf3, 0x0c,
  0xfe, 0x10, 0x04, 0xfe, 0xfd, 0xf9, 0x0c, 0x09, 0xf0, 0xfd, 0xfe, 0xf9,
  0xf9, 0x05, 0x09, 0x00, 0x16, 0x02, 0xfb, 0xf6, 0xd9, 0x01, 0xf9, 0xfc,
  0xf8, 0xf5, 0xfd, 0x05, 0xf7, 0xfd, 0xf9, 0xf0, 0xe3, 0x03, 0x06, 0x05,
  0x01, 0xff, 0x03, 0xfa, 0xf6, 0x0f, 0x02, 0xff, 0xf7, 0xf9, 0x05, 0xec,
  0xfe, 0xfc, 0xff, 0xf9, 0xfe, 0x09, 0xf8, 0x0d, 0xed, 0xfe, 0xfe, 0xe6,
  0x02, 0xef, 0x00, 0xff, 0xf9, 0x08, 0xfb, 0x05, 0x06, 0xfa, 0xfc, 0xf8,
  0x13, 0x02, 0xfc, 0x00, 0x09, 0xfc, 0x0d, 0x01, 0x01, 0xfe, 0xfa, 0x01,
  0x01, 0x00, 0xf4, 0xf9, 0xff, 0x04, 0xfb, 0x17, 0xff, 0xf3, 0x07, 0x02,
  0x0d, 0x03, 0xf7, 0x00, 0x05, 0x09, 0x01, 0x0f, 0x07, 0xf5, 0xfa, 0xf4,
  0x00, 0xfd, 0xf4, 0x06, 0x00, 0x05, 0xfb, 0xfd, 0x05, 0x08, 0x07, 0xf3,
  0x02, 0x01, 0x00, 0x05, 0x02, 0x01, 0xff, 0x08, 0xeb, 0x00, 0x01, 0xf0,
  0xf8, 0xfa, 0x00, 0x07, 0xf1, 0x00, 0xff, 0xfb, 0xed, 0x02, 0xf6, 0xee,
  0xf8, 0xfc, 0xf6, 0x03, 0xf5, 0x00, 0x00, 0xfc, 0x09, 0xf6, 0x00, 0x06,
  0xfa, 0xfa, 0x01, 0xf7, 0xf9, 0xf6, 0x03, 0x0a, 0x0e, 0xf9, 0x04, 0xf6,
  0xf3, 0xf9, 0x07, 0x00, 0x0a, 0x01, 0xf4, 0xf6, 0xf8, 0x00, 0x05, 0xfb,
  0xee, 0xf9, 0xf9, 0x03, 0xfd, 0x02, 0x05, 0xf4, 0x03, 0xfd, 0x02, 0x03,
  0xfd, 0x00, 0x07, 0x05, 0x03, 0xfe, 0x00, 0x00, 0x0e, 0x03, 0x07, 0xfa,
  0x02, 0xf8, 0xf9, 0x01, 0xff, 0x05, 0xf8, 0xfe, 0x02, 0x03, 0xfc, 0xf2,
  0x02, 0xf9, 0x00, 0xfe, 0x12, 0x06, 0xf8, 0x0c, 0x08, 0xfe, 0xfd, 0xf8,
  0xff, 0xfd, 0xfc, 0x00, 0x07, 0xfd, 0xf6, 0x14, 0x07, 0xfc, 0xf3, 0x04,
  0xfa, 0xfb, 0xeb, 0xfb, 0xff, 0x03, 0x00, 0x08, 0xff, 0xf0, 0x08, 0x04,
  0x03, 0x02, 0xf9, 0x00, 0xfe, 0x06, 0x02, 0x10, 0x08, 0xf9, 0xff, 0x04,
  0x04, 0xfd, 0xfe, 0x00, 0xfe, 0x06, 0xfe, 0xfa, 0x0c, 0x06, 0x01, 0xfb,
  0x02, 0x02, 0xfe, 0xff, 0x02, 0xfe, 0xff, 0xf8, 0xef, 0xfd, 0xff, 0xed,
  0xf9, 0x04, 0xff, 0x00, 0x03, 0xfb, 0x08, 0xee, 0xff, 0x07, 0xfd, 0x03,
  0xf4, 0xf7, 0x04, 0x09, 0xf8, 0x04, 0x00, 0xf6, 0xf6, 0xfa, 0xfc, 0x0b,
  0x00, 0x07, 0xfe, 0xfe, 0x00, 0xff, 0x07, 0x0b, 0xff, 0xf8, 0x09, 0xf8,
  0xf8, 0xf8, 0xff, 0xfe, 0x0d, 0x00, 0xf7, 0xea, 0xe7, 0x01, 0x05, 0xfb,
  0xf8, 0x03, 0xf7, 0x01, 0x00, 0xf6, 0xfa, 0xf6, 0x0f, 0x00, 0xff, 0x05,
  0x06, 0x02, 0x06, 0x07, 0x07, 0xfa, 0x02, 0xff, 0x01, 0x07, 0xfe, 0xfc,
  0xfe, 0xfb, 0xfc, 0xfb, 0xf8, 0x06, 0xfc, 0x06, 0xff, 0x01, 0x03, 0xff,
  0xfc, 0xf5, 0x01, 0xfe, 0xf9, 0x04, 0xf8, 0x0a, 0x04, 0xfa, 0xf5, 0x02,
  0xf2, 0xf2, 0x05, 0x07, 0x04, 0x02, 0xf3, 0x0a, 0x0b, 0xfb, 0xef, 0x09,
  0xfb, 0xfd, 0xeb, 0xf0, 0x05, 0xfd, 0x05, 0x0a, 0xfe, 0xf5, 0xf4, 0x02,
  0xfe, 0x05, 0xf2, 0x08, 0xfc, 0xff, 0x05, 0x04, 0xfc, 0x06, 0x02, 0xf6,
  0x05, 0xfd, 0x01, 0x00, 0xfc, 0x06, 0x01, 0xf9, 0xfe, 0xfe, 0xfc, 0xf3,
  0x04, 0xfe, 0x0c, 0xfe, 0xf9, 0x08, 0x03, 0x01, 0xfa, 0xff, 0x02, 0xe4,
  0xfa, 0xfc, 0x02, 0x01, 0x0a, 0xfb, 0xff, 0xfa, 0xe9, 0x08, 0x00, 0xf5,
  0xfd, 0x00, 0xff, 0x04, 0xf8, 0xfa, 0x06, 0xfb, 0xf3, 0xfd, 0xfb, 0xfd,
  0x0a, 0xfd, 0xf9, 0xfd, 0x09, 0xf3, 0x03, 0x05, 0xeb, 0x09, 0x07, 0x03,
  0xfc, 0xf1, 0xfa, 0xfa, 0xfe, 0xfc, 0xf7, 0xfc, 0xe6, 0xfb, 0x07, 0xee,
  0xf9, 0x05, 0xf6, 0x09, 0x0c, 0x08, 0x04, 0xea, 0xf1, 0x06, 0x05, 0x02,
  0x00, 0xfc, 0x00, 0x03, 0x0a, 0xfc, 0xfd, 0x07, 0xff, 0x00, 0xf5, 0xfa,
  0x02, 0xf9, 0xfe, 0xff, 0xf6, 0xfd, 0x05, 0x0d, 0x10, 0x07, 0xff, 0x06,
  0xf8, 0xeb, 0xfa, 0x00, 0x0a, 0xfe, 0xe9, 0x0c, 0x03, 0xfe, 0xfe, 0x0c,
  0x09, 0x00, 0x07, 0xf6, 0xfc, 0xfb, 0x0e, 0xf7, 0x07, 0xf9, 0xef, 0x04,
  0xfa, 0x06, 0xf7, 0x08, 0x01, 0x08, 0x01, 0x11, 0xfe, 0x01, 0x02, 0x00,
  0xfa, 0x03, 0xef, 0x06, 0xfb, 0x06, 0xfb, 0x06, 0xfd, 0x07, 0x02, 0xee,
  0x07, 0xfc, 0x00, 0x05, 0x02, 0xff, 0xff, 0xfe, 0x02, 0x01, 0x02, 0xf4,
  0xfe, 0x03, 0x0f, 0x00, 0xfe, 0x09, 0x02, 0xed, 0xf7, 0x02, 0x02, 0xe9,
  0xf8, 0x02, 0x06, 0x01, 0x07, 0xf8, 0x04, 0x01, 0xfd, 0x0c, 0xff, 0x03,
  0xfc, 0x00, 0xfc, 0xfb, 0xec, 0xf8, 0x05, 0x0b, 0x00, 0x02, 0x00, 0x0c,
  0x0a, 0xfd, 0xf8, 0xf8, 0x0a, 0xf9, 0x07, 0x15, 0xf5, 0xfe, 0x05, 0xf6,
  0xfd, 0xfd, 0xff, 0xfa, 0x06, 0xf6, 0xf3, 0xff, 0xee, 0xff, 0x03, 0xf5,
  0xfb, 0xfd, 0xf9, 0x06, 0x07, 0x08, 0xf5, 0xed, 0x0b, 0x06, 0x08, 0x01,
  0x07, 0xfb, 0xfd, 0xff, 0x09, 0x01, 0x0e, 0x03, 0x00, 0xff, 0xf6, 0x02,
  0x01, 0x05, 0x06, 0x05, 0xfc, 0xf8, 0x03, 0xff, 0x18, 0x02, 0x00, 0x0c,
  0x04, 0xf2, 0xfb, 0x09, 0x01, 0x02, 0xfd, 0x04, 0x01, 0x09, 0x02, 0x07,
  0xfb, 0xfd, 0x03, 0xf3, 0xfa, 0x0b, 0x0a, 0x11, 0x03, 0x00, 0xf9, 0x03,
  0x01, 0xfa, 0xfe, 0x01, 0x02, 0x08, 0xf4, 0xf5, 0x01, 0x02, 0x19, 0x01,
  0x05, 0xf8, 0x04, 0x07, 0xfa, 0x00, 0x02, 0xf7, 0xfa, 0x00, 0xfa, 0xf8,
  0x05, 0xf9, 0x02, 0xff, 0x00, 0xfe, 0x03, 0x06, 0x04, 0xf7, 0x05, 0x02,
  0xfc, 0xfb, 0x00, 0x00, 0xff, 0x01, 0xf9, 0xf4, 0xf8, 0xf7, 0x09, 0xe5,
  0x02, 0xf7, 0x07, 0x01, 0xef, 0x03, 0xf7, 0x00, 0xfe, 0x08, 0x07, 0xff,
  0x07, 0xff, 0xfd, 0xfb, 0xfa, 0xfd, 0x02, 0x0d, 0xf4, 0x02, 0xfe, 0x03,
  0x0e, 0x0a, 0xf9, 0xfa, 0xf9, 0xfe, 0x0c, 0x14, 0xfa, 0xfb, 0x08, 0x00,
  0x01, 0xfd, 0xfe, 0xf8, 0x03, 0xf5, 0xfa, 0x04, 0xf4, 0xfe, 0x02, 0xef,
  0xf7, 0x03, 0xfa, 0x02, 0x08, 0x01, 0xfb, 0xf7, 0x10, 0x05, 0x04, 0xfd,
  0x06, 0xfb, 0xf4, 0xff, 0x06, 0xfb, 0xf4, 0x09, 0x05, 0xff, 0xff, 0xfb,
  0x0f, 0xfd, 0x06, 0xff, 0x08, 0x04, 0xff, 0x05, 0x15, 0xfd, 0xfd, 0xfd,
  0x08, 0x03, 0x00, 0x01, 0xfa, 0x04, 0x00, 0x0a, 0x05, 0x03, 0x08, 0xfe,
  0x08, 0xfa, 0xfc, 0x01, 0x05, 0x10, 0xf9, 0x02, 0x08, 0x00, 0xf3, 0x02,
  0xfa, 0xf3, 0xf8, 0xfd, 0xfa, 0x01, 0xf2, 0x02, 0x02, 0xfc, 0x0c, 0x06,
  0x02, 0xfe, 0xfc, 0xff, 0x00, 0x09, 0xfb, 0x01, 0x03, 0xfc, 0xfc, 0xf6,
  0xf9, 0x08, 0x15, 0xfd, 0x05, 0x05, 0x08, 0x0a, 0xf7, 0xfd, 0xfd, 0xef,
  0xfb, 0xf9, 0x07, 0x04, 0xf3, 0x05, 0x05, 0xfa, 0xf2, 0x05, 0xff, 0xf7,
  0x08, 0xec, 0x13, 0xfd, 0xf5, 0xf0, 0xe9, 0xff, 0x02, 0xfa, 0xfd, 0xfa,
  0x01, 0x18, 0xf5, 0x06, 0xf9, 0x02, 0x07, 0x02, 0xf7, 0x06, 0x01, 0x04,
  0x09, 0x11, 0xf8, 0x00, 0xfe, 0xf5, 0xf5, 0x09, 0xf3, 0x09, 0x07, 0x00,
  0x02, 0x08, 0x07, 0x00, 0xfe, 0xfd, 0xf6, 0x06, 0xf4, 0xf9, 0x06, 0x01,
  0xfb, 0x04, 0x03, 0xf8, 0xff, 0xfc, 0xf2, 0x03, 0x09, 0xfd, 0x01, 0x06,
  0xfd, 0xf5, 0xef, 0x08, 0xfe, 0x01, 0xf9, 0x06, 0xf0, 0x02, 0x07, 0xf6,
  0xfc, 0x08, 0xff, 0xff, 0x08, 0x05, 0x01, 0xfc, 0x01, 0x03, 0xf3, 0x02,
  0xf4, 0x0c, 0x03, 0x0b, 0x02, 0x00, 0xff, 0x03, 0x04, 0xfd, 0x04, 0xf7,
  0xfb, 0x04, 0xf7, 0x08, 0x01, 0x06, 0xfe, 0x0b, 0x06, 0xff, 0xfc, 0x01,
  0xfb, 0xf9, 0xff, 0xf9, 0xff, 0xf6, 0x0c, 0xf5, 0x00, 0xfa, 0x05, 0x03,
  0xeb, 0xfe, 0xe9, 0xfd, 0xf2, 0x04, 0xfa, 0x00, 0xff, 0x00, 0x0e, 0xfa,
  0x0a, 0xff, 0x0d, 0x08, 0x0b, 0x0b, 0xfe, 0x06, 0xef, 0x11, 0xf0, 0xe2,
  0x23, 0xf8, 0x06, 0xff, 0xff, 0xfb, 0xfe, 0x13, 0x01, 0x02, 0xea, 0xf7,
  0x1b, 0x13, 0xde, 0x03, 0x12, 0x08, 0x01, 0x0a, 0x00, 0x0c, 0xfb, 0x0e,
  0x01, 0x1b, 0xdd, 0x00, 0x04, 0x03, 0x04, 0xf6, 0xe3, 0x04, 0xee, 0xfb,
  0xf4, 0x13, 0xf1, 0x01, 0xf3, 0xe8, 0x02, 0xed, 0xdf, 0x15, 0xfb, 0xfa,
  0x06, 0x05, 0x03, 0xf8, 0xf2, 0xf8, 0xfb, 0xfe, 0xe5, 0x02, 0x02, 0xf7,
  0x0a, 0x12, 0x10, 0xf9, 0x0b, 0x00, 0x00, 0x1e, 0xfe, 0xfd, 0x07, 0x04,
  0xff, 0x0b, 0xfa, 0xe6, 0x03, 0x0d, 0xed, 0x09, 0xdf, 0xf0, 0x17, 0xfa,
  0xf0, 0x17, 0xf6, 0xfc, 0x0a, 0x03, 0x04, 0x02, 0xf9, 0x08, 0x11, 0xe8,
  0xfd, 0x01, 0xf7, 0x00, 0xf1, 0x02, 0x08, 0xfa, 0x03, 0xfa, 0xf0, 0xf9,
  0x1c, 0x02, 0xfc, 0x0c, 0x07, 0x02, 0x0f, 0x07, 0x0f, 0x06, 0xfb, 0x0d,
  0xf1, 0x0b, 0x08, 0x12, 0xff, 0xff, 0x0b, 0x06, 0x03, 0x0d, 0x07, 0x00,
  0xec, 0xfc, 0x03, 0x05, 0xfe, 0x02, 0x03, 0x09, 0xff, 0x02, 0x00, 0xff,
  0xf2, 0xf7, 0x01, 0x03, 0xff, 0xfe, 0x00, 0x02, 0x03, 0x00, 0xf9, 0x01,
  0xea, 0xe0, 0x03, 0xfe, 0xfd, 0xf7, 0xf5, 0xf8, 0x00, 0xfb, 0xf0, 0x00,
  0xef, 0xc9, 0xf9, 0xee, 0xfe, 0xee, 0xe7, 0xe7, 0x03, 0xe4, 0xe2, 0xfb,
  0xf4, 0xe8, 0xe7, 0xee, 0xff, 0xda, 0xef, 0xce, 0x05, 0xe1, 0xdb, 0x01,
  0xfb, 0xed, 0xe3, 0xe5, 0x00, 0xdd, 0x00, 0xe2, 0x04, 0xf0, 0xea, 0xfd,
  0x06, 0xf6, 0xe9, 0xf0, 0x03, 0xdf, 0x0b, 0xda, 0x09, 0xf0, 0xd0, 0xfc,
  0x06, 0x0d, 0xf1, 0xfc, 0x01, 0xe3, 0x14, 0xef, 0x06, 0x07, 0xf3, 0x07,
  0x07, 0xf7, 0x05, 0xea, 0x01, 0xf4, 0x07, 0xf4, 0x06, 0xfc, 0x01, 0x09,
  0x07, 0xe4, 0x05, 0xfb, 0x04, 0xfe, 0x02, 0x0d, 0x02, 0xfb, 0x04, 0x03,
  0xf5, 0xfe, 0x00, 0x02, 0x01, 0x0f, 0x03, 0x11, 0xff, 0xff, 0xff, 0x04,
  0x01, 0xfa, 0x00, 0xff, 0xfe, 0x05, 0xfb, 0x05, 0x02, 0xf3, 0xeb, 0x04,
  0xe2, 0xf5, 0x04, 0x03, 0x01, 0xfa, 0xe3, 0x07, 0xfd, 0xf4, 0xfd, 0xff,
  0xe3, 0xe8, 0xfd, 0xff, 0xff, 0x00, 0xdd, 0x04, 0x03, 0xea, 0xf9, 0xfe,
  0xe7, 0xeb, 0xfe, 0x03, 0x01, 0xfc, 0xde, 0x03, 0xfe, 0xf4, 0xf4, 0xfd,
  0xe5, 0xd2, 0xfe, 0xfd, 0xff, 0xf1, 0xcd, 0xf7, 0x02, 0xec, 0xee, 0xfe,
  0xe7, 0xd5, 0xf3, 0xe9, 0xfd, 0xf2, 0xd2, 0xd8, 0x02, 0xd6, 0xdd, 0xfc,
  0xfa, 0xf9, 0xdc, 0xfc, 0xfb, 0xf5, 0xfc, 0xdc, 0x03, 0xe6, 0xf0, 0xfe,
  0x0a, 0x06, 0xef, 0xf9, 0x02, 0xdf, 0x0b, 0xe6, 0x01, 0xfa, 0xfc, 0x02,
  0x07, 0x11, 0xfa, 0x04, 0x06, 0xe4, 0x12, 0xe7, 0x05, 0x0a, 0x0f, 0x0c,
  0x01, 0x0c, 0xf7, 0xfa, 0xff, 0xec, 0x08, 0xee, 0x08, 0xfe, 0x0a, 0x0a,
  0x0a, 0xea, 0x04, 0x00, 0x02, 0xd7, 0xf7, 0xe6, 0x02, 0xf9, 0xf2, 0x09,
  0x08, 0xfd, 0x0b, 0x03, 0xfc, 0xca, 0x09, 0xe4, 0x08, 0x1a, 0x03, 0x0a,
  0x01, 0xfd, 0x00, 0xf2, 0xfc, 0xe3, 0x05, 0xe8, 0xfe, 0xfc, 0xf8, 0x03,
  0x0a, 0x02, 0x01, 0x02, 0x02, 0xe3, 0x05, 0xf8, 0x00, 0xfc, 0xfb, 0x00,
  0xbd, 0xb4, 0xf6, 0xdb, 0xfc, 0xf4, 0xad, 0xf8, 0xff, 0xca, 0xe2, 0xfa,
  0xca, 0xd5, 0xf7, 0xed, 0x01, 0xf7, 0xba, 0xf7, 0xff, 0xda, 0xe2, 0xfb,
  0xcb, 0xcf, 0xf8, 0xf4, 0x00, 0xf2, 0xb2, 0xf2, 0x04, 0xdb, 0xe5, 0xfa,
  0xdf, 0xb9, 0xeb, 0xe9, 0xff, 0xe4, 0xda, 0xe5, 0x01, 0xd9, 0xdb, 0xfa,
  0xe7, 0xd8, 0xef, 0xdb, 0xfa, 0xf5, 0xe4, 0xec, 0x06, 0xed, 0xc9, 0xfa,
  0xfc, 0x04, 0xda, 0xfb, 0x05, 0x04, 0xfc, 0xe0, 0x05, 0xec, 0xe6, 0xff,
  0x02, 0x00, 0xee, 0xef, 0x0d, 0xdc, 0xf8, 0xf5, 0x01, 0xf3, 0x05, 0xf4,
  0x07, 0x0d, 0xf0, 0xfd, 0xff, 0xe0, 0xff, 0xfa, 0xf0, 0x01, 0x11, 0xf9,
  0x06, 0x10, 0xf7, 0xf8, 0x06, 0xf3, 0x15, 0xf0, 0x07, 0x01, 0xfe, 0xfe,
  0x0b, 0xfd, 0x15, 0x06, 0x03, 0xf0, 0xfe, 0xe9, 0x0b, 0x1b, 0xfa, 0x04,
  0x0b, 0x0d, 0x14, 0x0e, 0x00, 0xd9, 0x00, 0xdc, 0x04, 0x15, 0xfd, 0x00,
  0x12, 0xfc, 0x04, 0x04, 0xff, 0xc8, 0xf5, 0xdd, 0x01, 0x03, 0xfc, 0xfe,
  0xfe, 0xf5, 0x04, 0xfe, 0xff, 0xf4, 0xf7, 0xfb, 0xfd, 0xfc, 0x05, 0x07,
  0xd9, 0xd1, 0xee, 0xdb, 0xfd, 0xeb, 0xda, 0xe9, 0x01, 0xdb, 0xc9, 0xf8,
  0xdb, 0xab, 0x0b, 0xd9, 0xff, 0xe9, 0xd5, 0xe2, 0x00, 0xec, 0xe6, 0xf9,
  0xec, 0xdd, 0x0e, 0xe3, 0x00, 0xe5, 0xda, 0xdb, 0x05, 0xc9, 0xea, 0xf9,
  0xeb, 0xf0, 0xea, 0xe1, 0xfe, 0xef, 0xeb, 0xeb, 0x03, 0xde, 0xeb, 0xf9,
  0xf2, 0xf1, 0xe7, 0xef, 0xfb, 0xf6, 0xf2, 0x03, 0x05, 0xf0, 0xe5, 0x04,
  0x00, 0xfd, 0xf4, 0x03, 0x0a, 0xfd, 0xf6, 0xf6, 0xff, 0xf4, 0xf7, 0x01,
  0x03, 0x00, 0x0e, 0x00, 0x08, 0x05, 0x05, 0x0f, 0x09, 0x06, 0x0b, 0xfb,
  0x08, 0x0d, 0xf0, 0xfd, 0x02, 0xf7, 0x0c, 0xf5, 0xff, 0xff, 0xff, 0x07,
  0x03, 0x14, 0x0c, 0xfe, 0x07, 0xe4, 0x09, 0xf4, 0x05, 0x0e, 0xfc, 0xf8,
  0x04, 0x07, 0x18, 0x0d, 0x09, 0xe1, 0xf6, 0xdb, 0x0a, 0x13, 0x0b, 0xfe,
  0x03, 0x14, 0x09, 0x0d, 0x11, 0xd9, 0x03, 0xeb, 0x06, 0x09, 0x00, 0x00,
  0x01, 0x09, 0x03, 0x0e, 0x03, 0xf8, 0x02, 0xed, 0x02, 0x0d, 0x10, 0xfc,
  0xfa, 0xfa, 0x04, 0xfa, 0xff, 0xe8, 0xf8, 0xfd, 0x0b, 0x01, 0xf9, 0x02,
  0xe9, 0xe6, 0xfb, 0xe7, 0xfd, 0xdf, 0xf3, 0xd8, 0x08, 0xe7, 0xe0, 0x02,
  0xf1, 0xe7, 0x0e, 0xed, 0x03, 0xd7, 0xe8, 0xda, 0x0a, 0xfd, 0xe4, 0x05,
  0xee, 0xf3, 0x0f, 0xf0, 0x02, 0xfc, 0xe2, 0xeb, 0x0a, 0xf9, 0xeb, 0xfe,
  0xed, 0xf0, 0xe5, 0xeb, 0xfd, 0xd5, 0xfb, 0xf2, 0x08, 0xf4, 0xe9, 0x00,
  0x0c, 0xf9, 0xbf, 0xe3, 0x0c, 0xdb, 0x10, 0xe8, 0x0f, 0xdb, 0xe0, 0x00,
  0x07, 0xf8, 0xd3, 0xef, 0x06, 0xd8, 0x08, 0x08, 0x19, 0xf6, 0xf4, 0x0b,
  0x03, 0x06, 0xf9, 0xf8, 0x0b, 0xe8, 0x07, 0x09, 0x11, 0xfb, 0x05, 0x04,
  0x0b, 0x11, 0xfd, 0xfa, 0x16, 0x07, 0x0c, 0x03, 0xf2, 0xff, 0x03, 0x02,
  0x04, 0x0b, 0x18, 0x09, 0x03, 0xf6, 0x0a, 0xf6, 0xf7, 0x0d, 0x06, 0xf4,
  0xfa, 0xfc, 0x06, 0x00, 0x05, 0xde, 0xf9, 0xed, 0x0a, 0xfa, 0x09, 0xf8,
  0x04, 0x17, 0xf1, 0xf6, 0x1a, 0xe1, 0xff, 0xe8, 0x06, 0xf1, 0xff, 0xfc,
  0xf8, 0x0e, 0x0e, 0x00, 0x18, 0xf0, 0x02, 0xf2, 0x06, 0xfc, 0x10, 0xfa,
  0x0b, 0x1f, 0x01, 0x03, 0xfc, 0xeb, 0x06, 0xfa, 0x11, 0x09, 0xfc, 0xf9,
  0xf0, 0xf5, 0xd8, 0xf2, 0x00, 0xed, 0xf7, 0xe9, 0x01, 0xe4, 0xee, 0xfa,
  0xe3, 0xe8, 0xe7, 0xf3, 0xf8, 0xda, 0xf1, 0xd7, 0x09, 0xf1, 0xf0, 0x03,
  0xf7, 0xeb, 0x0a, 0xe1, 0x06, 0xe2, 0x0c, 0xdc, 0x0d, 0xed, 0xe8, 0x0e,
  0x04, 0x04, 0xe1, 0xea, 0x07, 0xc7, 0x09, 0xe7, 0x01, 0xeb, 0xff, 0x07,
  0x0a, 0x02, 0xdd, 0xe7, 0x04, 0xdf, 0xfd, 0x13, 0xf2, 0xfe, 0x09, 0x02,
  0x04, 0xfb, 0x08, 0x00, 0xee, 0xfa, 0x08, 0x03, 0xf7, 0x05, 0x03, 0x05,
  0x08, 0xff, 0xfd, 0xff, 0xfc, 0xf7, 0x06, 0x0f, 0xed, 0x08, 0x04, 0x12,
  0xfb, 0x01, 0x01, 0x01, 0xfd, 0xfb, 0x05, 0x0e, 0xec, 0xfe, 0x04, 0x0a,
  0x05, 0xf8, 0xfb, 0x05, 0x09, 0xfd, 0x05, 0x08, 0xfa, 0xf0, 0xfc, 0x01,
  0x02, 0x04, 0xff, 0x02, 0x18, 0xeb, 0xfb, 0xf8, 0x20, 0xfe, 0x02, 0x0d,
  0xfa, 0x04, 0xfb, 0xfb, 0x1b, 0xe9, 0xfd, 0x02, 0x0c, 0xfa, 0xfe, 0x04,
  0xff, 0x14, 0xfc, 0xfa, 0x14, 0xeb, 0x03, 0xfc, 0x01, 0x03, 0xff, 0x02,
  0x0a, 0x1d, 0x02, 0x10, 0x1c, 0x00, 0x1a, 0xed, 0xfd, 0x0b, 0x06, 0xff,
  0xf8, 0xf8, 0xf9, 0xf9, 0x0a, 0x02, 0xfe, 0x0c, 0x04, 0xe7, 0x01, 0xf6,
  0xf1, 0xe7, 0xfa, 0xfa, 0xed, 0x0c, 0xf4, 0x16, 0x03, 0xd7, 0xfa, 0xfe,
  0xf7, 0xf9, 0xe2, 0xeb, 0x06, 0xe7, 0x00, 0xfa, 0xff, 0xeb, 0xea, 0x03,
  0x00, 0x07, 0xee, 0xf2, 0xf7, 0x02, 0x06, 0x0a, 0xf5, 0x00, 0xfa, 0x02,
  0x02, 0xf6, 0xfd, 0xf4, 0xf8, 0x00, 0x02, 0xfd, 0xfb, 0xf7, 0xfe, 0xfc,
  0x0c, 0x03, 0xf5, 0x01, 0x02, 0x01, 0x08, 0x02, 0xfb, 0xfb, 0x01, 0x02,
  0xf6, 0x02, 0xf3, 0xf4, 0xf5, 0xf9, 0x0a, 0x06, 0xe6, 0xf8, 0x05, 0xf9,
  0x09, 0x04, 0xf8, 0xfc, 0xf7, 0xfc, 0x03, 0xfd, 0xd9, 0x07, 0x09, 0xf5,
  0x01, 0xf1, 0xee, 0xfb, 0xf5, 0x00, 0xf5, 0xfa, 0xdc, 0xf8, 0xfd, 0xfe,
  0x08, 0xf9, 0xe4, 0x0a, 0xff, 0xf6, 0x06, 0xfe, 0xf5, 0x03, 0x07, 0x11,
  0xf4, 0xf7, 0xfc, 0xf7, 0x06, 0x00, 0x03, 0x07, 0xf3, 0xf4, 0xf5, 0x09,
  0x0a, 0x0c, 0xf0, 0xfe, 0x0a, 0xf1, 0x01, 0xfe, 0xd2, 0x01, 0x0a, 0xfd,
  0x00, 0x22, 0x00, 0x07, 0x24, 0xfe, 0x01, 0x01, 0xe7, 0x0b, 0x08, 0xf4,
  0x03, 0xfa, 0x08, 0xf9, 0x0b, 0xf4, 0xfd, 0xfb, 0xff, 0x02, 0xf4, 0x02,
  0xf5, 0xea, 0xf3, 0xf5, 0xec, 0xfd, 0xf9, 0x01, 0xfa, 0xde, 0x00, 0x01,
  0xf5, 0xf6, 0xe8, 0xf2, 0x04, 0x0d, 0xfb, 0x09, 0x03, 0xe5, 0xfd, 0x0b,
  0x02, 0x0a, 0xde, 0xf4, 0x02, 0x0a, 0x00, 0xfe, 0xf7, 0xf2, 0xfd, 0xf9,
  0x02, 0xf9, 0xec, 0xf0, 0xfd, 0x07, 0x02, 0x03, 0xee, 0xe8, 0x05, 0x05,
  0x01, 0xfa, 0xf8, 0xfd, 0xfa, 0x07, 0x01, 0xff, 0xfb, 0xfd, 0x03, 0x01,
  0x06, 0x00, 0xf1, 0xfe, 0x0a, 0xee, 0x11, 0x05, 0xd3, 0x05, 0x0d, 0xfd,
  0x07, 0x04, 0xf6, 0x07, 0x00, 0x09, 0x19, 0x0e, 0xe6, 0x01, 0x07, 0x11,
  0x05, 0xf8, 0x02, 0xff, 0xf5, 0xf8, 0x06, 0x04, 0xd8, 0xff, 0x08, 0x07,
  0x02, 0xf5, 0xfd, 0xf9, 0x08, 0x03, 0x03, 0x00, 0xf5, 0xf5, 0x0d, 0x04,
  0x07, 0x03, 0xf1, 0xf2, 0xfb, 0x13, 0xfc, 0x06, 0xe7, 0xf2, 0x06, 0x15,
  0x0a, 0xf1, 0xee, 0xfb, 0x00, 0x03, 0xfb, 0x0c, 0xc3, 0x01, 0xfe, 0x00,
  0x0b, 0x14, 0x0d, 0x0c, 0xfd, 0x06, 0x01, 0x0a, 0xe6, 0x0b, 0x10, 0xdf,
